00000000
00000000
00000000
00000000
00000000
00000000
00000000
00000000
00000000
00000000
00000000
00000000
00000000
00000000
00000000
00000000
05020100
030c050b
000e0100
00000000
00000000
fc000000
ff030200
08ff03ff
04030607
fa000307
0b0109f1
00000000
00fe0000
01010100
0505fffe
0307ff06
03000003
0a000503
0001050d
00000000
fcfafefc
00fffefb
fefff7ff
fbfe0000
00000302
00030506
fd000000
f6f800ff
04ff0300
00fefc01
f8fc00fd
01fff9f8
00000000
fd020000
f8f90301
00010304
03fc00ff
fb01ff00
fefefefe
000bfe00
02030000
fcf80502
01000003
00fffbfc
fcfdfe00
00000500
000502fc
05010000
00fdffff
01000602
01f4f5f7
04020201
03fe0404
ff070805
00f90000
00ff00ff
05070905
fcfbeff7
020400fa
00fdfdfb
0005fa06
f7fc0000
010501f9
0a060a08
f7f8f4ff
fffe00f8
01fcfffa
fe06fcfb
fdfd0000
0202fff4
0b0a0501
f7f8fc03
04fa00fb
02010200
f8fe0004
f9000000
000000f3
09070503
f9fc0309
030200ff
05080001
0000fe00
fe000000
030404f6
06010402
fcfd0109
00020402
040602fd
00000800
06000000
01020302
040001ff
03020608
fcff0106
0607fffd
00020600
03fe0000
00040205
fffffafe
08020509
fefe0005
0402fefb
00000d02
04010000
fc04010b
02000002
00000506
fbfcfd04
0705fd00
00f8fe00
05000000
f7040609
000200ff
0100060a
00fdfa00
0401fcfe
0301070c
fefb0000
fb0100fb
00000000
00030409
01fdfdfe
0700fbfc
01020204
fd000000
fffaf9f0
0302ffff
02fb0505
010101fe
00fdfd00
00000202
fe000000
00fafbf6
00ff0407
00fe0302
fffc02ff
04080200
000104fd
06020000
fef5fdff
000403ff
0300fd01
ff000203
fd0303fc
000000fc
00000000
f8f6fc01
000203fd
0102fefb
00070005
00040601
000000fa
ff000000
efe6f601
0d04fcf8
0201fe00
01040007
fffafcff
00000102
00000000
eff1f3ff
02faf1f2
07f80000
03050809
02fc0400
00000001
00000000
f6f7f7fa
00f3f700
fcfdfe09
fb03fff9
00fffef9
00000000
00000000
ff000000
00ff00ff
fffe0000
00fcfcfe
00fffe00
00000000
00000000
00000000
00000000
00000000
00000000
00000000
00000000
00000000
00000000
00000000
fcfe0000
00000000
00000000
00000000
00000000
00000000
05030401
0005fb05
fcff0000
000002fd
00000000
00000000
020201fe
07000601
010203ff
00fb0000
050103f8
0000feff
00fe0000
01030000
02080500
ff04fe00
00fe0201
00fefdfe
00010000
fe000000
fef8f701
fffefd01
01000100
02000402
fbfa0200
00020501
fe000000
fdfbf3ff
00fafcfd
03fdfefe
fffb0200
0202fd01
02000201
fc000000
fcfefe01
0000fffe
00fbfefc
0000fdfe
fb0000ff
00000402
fe000000
0003fff9
030100fd
ff010400
020000fe
fbf80001
000101ff
01000000
010502fe
fe000400
ff020000
00000100
fdfb0102
fa000000
06f90000
00050402
fc0100ff
fbfefcff
0204fefd
00fa0001
fdfef900
00fc0000
000606fd
fe000401
feff0004
02fdfbfc
00fcfffe
ff0408fe
01ff0000
02020201
0500fffe
fb000404
03fffffb
020603fe
fafb000c
00fe0000
020200fd
04040206
02000403
00000001
09060000
0001fc00
feff0000
030304fd
04050001
02040503
feff0002
01020000
00030901
02000000
050303fe
04030306
00040505
01fdff01
fefd00fe
000106fe
02010000
0002fefb
08030105
00050004
00000503
02000200
00060ffd
fe020000
030100fd
01040206
fe000000
fb020104
000100fd
00fd02fa
02000000
07040304
02010103
00000005
ff040102
0300fdfd
02ff0004
fc000000
04020004
05010000
03000201
00020404
030600ff
0003fffc
02040000
00ff0500
00000101
02010001
fe020202
000003ff
000003fe
02050000
02040101
00fe0403
01010502
00fd06ff
0604fffb
000000fb
05020000
01010003
04020001
fd010304
010000fe
020303fe
00000001
06000000
fdfefe03
00030304
fefc0103
0201fcfd
02070502
0000fffd
ff000000
fafdfb03
fefb00fe
fcfbff02
fb00fd00
00fffe00
00000000
00000000
f5f7fbfd
fbf9f4f5
00fffbfc
00000106
fffdfe02
000000ff
00000000
fd030607
fbf8f9ff
f8000103
f9010401
00ff0000
00000000
00000000
01000000
01fe0001
00010001
0001fbfe
0000fefe
00000000
00000000
00000000
00000000
00000000
00000000
00000000
00000000
00000000
00000000
00000000
00000000
00000000
00000000
00000000
00000000
00000000
00ffff00
01000d00
04020304
00000000
00000000
00000000
fbfcff00
ffff00ff
070b0801
0405070d
fdfdfffe
00000000
00000000
0100fe00
fdfb0702
000100fb
0b060301
fb000008
000000f6
00000000
000c0900
fe050304
000204fd
06ff00ff
fefaff01
0000faf5
00000000
000004ff
0107fe00
fffe0001
02fc0000
f9fb03ff
0000faf5
00000000
05030000
050404fd
00010402
07020807
fcfe0105
00fff7fc
f901000a
07fd00f8
04060806
0904030a
09030808
0002fe03
0000fdf9
fd010000
0d0505ff
01070906
00000404
03060301
0004fe04
000002f8
ff040000
050302ff
00050406
fef6fefc
000203ff
fe010000
0000fcf7
fe000c00
0003fefc
fdff01fd
fceff0f7
ff0000fe
fcfe00ff
0000fa00
f5fd0000
0001faff
fb0001fb
fef6edf7
fa04fefe
fcfafb02
0000ffff
f6010000
fbfefafd
f3f8ff00
fffcfaf2
fafffbfc
fbfafa00
000001fc
f5020000
fefa01fd
f4f9fc01
00fffdf8
fcfb01fd
00fd00fc
00000307
f5000000
fff800fe
faf80004
fcfbfcfb
f6f8fefe
000105fe
00000005
f5000000
01fa00fe
fbf8ff05
01fefffd
fcf5fd00
00fe04ff
00fffb04
fa000000
04ff0001
0002ff00
fffcfeff
fff8ffff
03020000
ff060a07
fd000000
070000f9
02060805
fcf8f900
ff0300fe
08060005
feff0b05
00000000
0101fafa
07010300
fffafc02
03fe07ff
00060608
00ff0603
02000000
0000fefb
060602fd
01fffe05
07ff0000
fe040605
0000fafe
03030000
ff000100
090500fd
00020200
fffc0103
fe040603
000c03fc
fc010000
000503ff
05010403
04000300
05010101
fc040501
000106f9
fc000000
0607ff01
030104fd
fffd0103
00fe0101
faf6fdfe
000004f8
fe000000
02050b0e
fd000005
03fdfd02
f9000400
f8f7f6f3
000000ff
00000000
0503060a
fdfc060d
00fafa05
f4f4fbff
fc0000fb
00000000
00000000
08fff6f9
fd000302
090502fe
01020207
00fdfc00
00000000
00000000
00000000
040b0100
100c0000
00010703
00fc0002
00000000
00000000
00000000
00000000
00000000
00000000
00000000
00000000
00000000
00000000
00000000
00000000
00000000
00000000
00000000
00000000
00000000
00000100
00fcf9fb
00050500
00000000
00000000
00000000
00010001
020106fc
f7fb01fe
080202fd
ff010803
00000000
00000000
fe03ff00
01fefff8
fcfd010a
0d060100
00000808
000000fe
00000000
fa0202fc
09050806
02fd0300
04030203
fbfb0200
00fefff7
fd000000
ffff0505
04020509
fefcfc03
fe010001
f1fefdfe
0000fcf4
02020000
000002fe
05040700
fff8f8ff
fd000100
fbfffdfb
0002fdfe
ff030001
0302feff
05060305
01f9f4fa
f5fdfd00
fdfc00fc
00fe0801
ff000000
0300ff04
05090505
fffcf6fd
f9fcff00
01fb0000
04ff0502
fc070000
04fe0405
05070904
00fdf9f8
02ffff03
01030206
01ff0c06
01050100
060803ff
070b0b0b
0705fefc
02fe0906
fe030605
00fefe02
05030000
07030400
03050707
0700fdf6
01020508
01030703
03fffc00
03000000
04030404
fd050201
020100f6
030000fe
05020405
00fc0204
01000000
05030c06
00000501
fefffff9
02050400
00090305
00fbfdfe
02000000
06030406
060500fc
fffb0002
02080300
00030000
00fe00fd
ffff0000
00ff0305
07040104
03f9fa00
00000206
00020000
00f901fb
ff000000
fb000101
0603fffd
04fefcfe
00010500
0001fc01
fc040904
00000000
fcfd0005
0200fefb
0200fcff
f901fefb
fbff01fc
00010102
00ff0000
fd00fe00
01020000
0303fcfd
fdfef9f6
f8ff00fe
0000fefe
00ff0000
fefefdff
020100f7
0000ff01
00fdfbfa
f500f9fc
0000fff7
f7fb0000
fcf802fd
020100fc
00000003
00010003
fefefbff
00030101
00000000
fbf6fc01
00010400
0500ff00
01040507
00fdfffc
000000ff
00000000
fefa00ff
feff00fe
0002ff02
05010301
fdfb02ff
000000ff
01000000
fbfe0503
f9fe01fd
010102fb
00000000
fffffc00
00000105
01000000
00000001
f9fa0302
fc0000f8
fe0002fd
03090800
00000002
00000000
fbf7f900
fbfdfefd
fdff0000
07030204
00000004
00000000
00000000
fe000000
000500ff
fffe0000
03060401
00000002
00000000
00000000
00000000
00000000
00000000
00000000
00000000
00000000
00000000
00000000
00000000
00000001
00000000
00000000
00000000
00000000
00000000
0400fcff
070d0e09
00fe0104
00ff0000
00000000
00010000
00010002
060505ff
03010a0b
0701080e
fd05ff07
000002fb
01050000
0503fd00
080b100b
06080b02
01040a0a
fc04fd02
ffff00f8
02000000
02fef8fc
fd0200ff
040006fd
01ff0004
070d0703
fefa03fd
fe000000
fcfefcfb
0000feff
fd010300
00030000
fd020301
fcfcfbfc
00fe0000
05000305
fffefe00
010500ff
01020305
00060700
fef9fbff
02000002
fdfd0108
f7f7fbfa
0402fdfa
03070808
03070000
00fff9fb
03050000
fefcfd00
f6f9f7fc
ff00fefb
01080104
00fefcff
0002fbf8
08030000
fcfefbfd
fdfaf2fb
00fdfcfe
06050304
0005fe02
0100fcf8
00000400
f8fbf904
fcfaf6f1
0100fffe
04020100
06050204
00f9fdfd
fc000000
ff00f7fe
fa0100f8
fe02fc00
030101fc
03000207
0000ff04
04000000
00fe0003
03fd0100
ff00fc00
040001fb
fd000304
0000fcf8
08000000
03feff03
00fcfb00
fb00fcf9
00ff0101
02fc0002
00000000
02010000
fe040203
fdfdff00
f9fbfdfc
fafffcff
02f800fb
0003fb03
03030000
ff010101
00fefcff
fcfdfdfb
fefbfbfd
00fd05fc
0000fd06
00020000
00020003
0200fa01
00000000
faf8f8fe
fffdfefa
00020601
ff000000
fdfffefe
04020000
00060300
f7f9f600
fd00fffd
010000f9
00ff0000
02ff0002
03000001
03040601
fdfcfc00
fbfcf9fd
0000fdf6
06010000
0401ff02
02010504
03030704
01040004
0500fafe
00000003
05050000
0000fe01
04050403
03030100
00070006
070301ff
00060104
02020000
000202ff
01010601
07020102
04020503
08050304
00000009
01000000
020001fd
07090903
08030206
02080f0a
09040308
00000000
00ff0000
fdfdfa01
050302fd
07090104
0a0d1407
01ff0a06
00000000
00000000
fd01f6fa
f6f90606
030b07fe
0a0c07fe
00ff0005
00000000
00000000
f9f5fc00
f7faf7f9
02f8fdf7
00fffafe
00000000
00000000
00000000
00000000
00000000
00000000
00000000
00000000
00000000
00000000
00000000
00000000
00000000
00000000
00000000
00000000
00000000
ff000000
00000000
01000001
ff000000
00000000
00000000
00000000
ff000000
fc00fe00
01f7f9f7
ff020404
00fffe00
00000000
00010000
fdfefe01
fefdf5fa
00fcfdf9
04fd0102
02020000
00ff00fe
01040000
01fefc00
01fffd02
00fe0002
fe0304fe
fd03fcff
000100fb
01000000
00030005
0200f3f5
00fefe02
0300fd00
00070502
fffd00fd
01ff0000
ff00f4fc
01fffdfe
fbfffffc
fafffdfe
fcfe00ff
ffff00f6
fffd0000
f6f7fe03
fffc0000
020000fe
02fef9fe
0200fd00
fefefdfa
000000fe
faf9fafd
fb00fe02
000100fc
0201fcff
030002fe
0002fd00
02010000
ff00f9f8
fffefd03
020100fd
03000302
0001fffe
fa00fcfe
03fc0000
02fcfa00
0100fe02
00040103
06040606
0004fe04
0000f8f7
fefffe00
04fa0001
020500fe
00fe0403
07040504
01030309
000302fd
fdff0000
00040204
040300ff
02010506
09050601
05fc0306
fbf8f600
fefe0000
03fff9fd
02000200
04010102
03070902
f6fdff00
00f9f4f4
01ff0000
0600fdff
fefcfe00
010002ff
ff020705
f5f8f8fb
0000fffd
04000000
fd010201
00000402
0103fffe
f6fe0106
f8fcf2f6
00fff9fe
fc030000
020601ff
ff00ff00
030101fe
f2f90004
fcfdf5f5
010000fd
fa010000
030201fe
fd00ff01
01010504
f9fcfd02
0000fffe
0b0506fe
00000000
fe000200
00000000
ff010400
0100fe02
01070300
01000500
01fd0000
fbfd0104
fcfffdfb
fe0003ff
fe040202
00070702
000105fe
03ff0000
fcfcff08
fffefd00
00ff0000
01020206
04060407
00000300
06020000
fe020402
fbff0100
0200fcfe
03040000
fe0103ff
00fa0300
07000000
fe050000
fdfdfb04
fe0100fc
020300fd
02040506
00000704
07000000
00fdfefe
fbfe0002
fe030201
02050603
04090108
00000305
00000000
00fffd02
030000ff
fcff0002
0400fe00
05080a03
000000fc
00000000
fd00fffd
f9f60203
fcff0500
00fd0000
feff0403
000000fb
00000000
0002090c
0300ff02
0103fd00
ff020104
00000401
00000000
00000000
03000000
01fe0002
01010000
01fffc00
0001fffe
00000000
00000000
00000000
00000000
00000000
00000000
00000000
00000000
00000000
00000000
00000000
fe000000
00000000
00000000
00000000
00000000
00000000
00ff0000
fc000101
fdfffefc
000000ff
00000000
00000000
01000000
0601fe03
0105fd02
ff000300
fdfb0306
00000000
00fd0000
01000300
00fffa01
00faffff
030301ff
00ff0501
00000203
00000000
04020602
02020208
fe050204
01050101
01fefcff
00000103
00000000
03020803
00050704
06fd0000
02ff0004
06050404
0000fb0b
00020000
050200fe
00000301
01fcfefb
00020201
080201ff
0003fb08
01040001
0302ffff
02000102
fffdfc00
fe010302
000303ff
00000200
02020000
01000100
01fdfd00
fe000001
01fe04fc
02000103
01fd05fe
03020000
fe0300fd
02000600
00fd01fd
00ff0000
00010004
00fb01ff
05010000
02030200
01000306
03fe0202
00010301
fc00fffc
00f9fbff
00010000
00040300
0000fe04
03000300
fd030000
ffffffff
0201fefd
01000000
03030100
fa000100
040003ff
0200ff02
02fd0303
00fc0200
01000000
00040401
fcfaff04
01ff0004
020000fd
00ff0201
00fafafb
fcff0000
04010702
fffbfafd
0501fffe
000000fa
07070306
00fdfefd
fffe0000
01000302
fefdfbff
000201fe
0600fffb
fd020205
00fc0000
00ff0000
05000203
01fe0000
fffd00fd
01fe00ff
00010001
00040200
00000000
fd010001
0000fe00
01ff0102
00ff0200
fe000300
fe0301fc
08010000
fbfe0401
01010101
0001ff03
010000ff
fbf9fe01
0000fe00
01fd0000
fcfb0001
ff0101fd
ff030101
02fdfbfa
f3f9ff01
0000fdfc
fefc0000
fffafbfd
0300ff01
00020003
01fb0000
f6f9fb00
000200fa
ff000000
fefefd00
0400fdff
05ff0300
04fa0300
f8fbfcfe
000000fa
00000000
00fe0001
0002fafe
fd02fefe
fdfcfafc
f5f0f5f8
000000fc
05000000
05060f06
fdfcfe00
050005ff
f4f7fb03
fcfbf3f7
000000ff
00000000
06000904
0a0a02ff
02f70001
f8fbfe06
0000fcf7
00000000
00000000
0402fdfa
03000104
01000404
00000305
000000ff
00000000
00000000
fe000000
000000ff
00ff0000
00000100
00000000
00000000
00000000
00000000
00000000
00000000
00000000
00000000
00000000
00000000
00000000
00000000
00000000
00000000
00000000
00000000
00000000
ff000000
00000000
00f9f9ff
ff0200fb
00000000
00000000
00000000
00020000
fbfdfbfc
070303ff
fd01fcfc
fb0100ff
00ff00f9
00030000
030b0601
fdf7fbfa
0305fdfa
ff02fe00
03040200
00000501
00000000
fd080d01
fefafcf8
fe01fdff
fcfc0003
0005fc00
00000b02
fe010000
00050b07
00fefe03
00040000
0004ff00
0200fdff
fb030506
fd000000
00020804
fe000201
010000ff
05010001
08fffe00
fd07fb00
03ff0000
030d0700
fb010300
00ff02fd
0601ffff
0000ff00
00030700
03fe0000
02090105
fbff0300
000000fb
0000ff00
00fffefd
fe040a08
00fd0000
0003060c
00040504
fbfcfcff
fefcf8f9
fc000100
000300ff
01000000
0503070b
01020703
00000200
fdfefcfd
fb0001ff
00090000
06000000
07040606
02030607
00fd0403
0200fcfe
ffff0408
000302fb
03000000
05050900
09090b07
0403ff00
06ff0100
fbff000a
00fd0200
fd000000
030100fb
07090d07
05080100
02fcfe01
02030202
00faffff
ff000000
fdfef7f8
08050402
04080507
fefa0000
050403fa
00fd02ff
02010000
f4f3ebf3
0003fdf9
07030702
f9fafa00
03ff00fc
00f4ff01
02010000
f7f9f0fb
00f6f7f7
070400fd
f3f9fc02
010301fe
00050302
00000000
f5fffb00
f7f9f4f5
0003fff6
faf3fdff
02030000
00030203
03000000
fd000003
f7faff00
010500f5
00fcfe01
0200fdfe
00000200
00000000
fe000001
ff02ff05
050301fd
00fd0001
0002fefd
0000fbfc
fe000000
05090603
030000ff
02040301
fcfffe00
fc000100
000001fd
fdfd0000
05040406
00fafe00
02040302
00fbfdfe
fd000200
00000102
01000000
ff010608
0002ffff
03040400
fefefdfe
00010004
00000103
03000000
04000601
04010001
fc020608
fefaf4fb
03fe02fd
00000000
00000000
fafdfdfd
000004fc
05070a08
03010206
08070602
00000004
00000000
fc000000
05020b01
04ff040a
02050505
00000001
00000000
00000000
00000000
00000000
00000000
00ffff00
00fffe00
00000000
00000000
00000000
00000000
00000000
00000000
00000000
00000000
00000000
00000000
00000000
00000000
00000000
00000000
00000000
00000000
00000000
04030200
03060203
02030504
00000101
00000000
00000000
010100fe
ffff08ff
00fefdfa
02fbfd00
05fffffd
0000fd03
00ff0000
060602fd
fa000504
fdfffaf8
05000607
ff00fe00
0000fefe
fd000000
00000000
fc010306
f8fdfc01
0803fefa
fcfd0000
0000fd00
00ff0000
ff000201
01fb0303
fffeff01
fffdfcff
feff0500
01fd02fe
03000000
00000608
02010001
02000002
03030000
fb000806
fffe0505
00ff0000
05030805
00ff0303
ff0000fd
04fefdfc
01fc0403
fffeff00
01fe0000
02020705
00feffff
00fe00fc
0002fcfe
00fc07ff
00fe0004
fc030000
02050604
fc00fe00
00fc00fc
02000004
fffe00ff
00fefd00
05000000
ff080700
00fe0101
ffff0104
04fefeff
00fc0302
00fff4f6
08000000
00020506
ffff0000
fdfefe01
0400fcff
fe020702
fffaf9fe
09000000
00ff0204
02020501
00fd00fc
0300fef9
fc0404fe
00fffefa
04000000
030005fd
03040302
f802fffd
080400fa
fc0400fe
00000bfc
0700ff00
06fefafa
03fd0000
010605fa
04040400
fefcfcfe
00010b01
01010000
00010004
fdf9ff00
030802fa
00020507
03f9fc00
00050aff
00030000
feff0001
fbfefb02
05050302
00050309
00fe0000
00ff0504
01010000
fffefc02
fdfbf8fb
05060405
fe040500
fafefcfe
00000302
00fd0000
fafefc01
06fef7f6
00010306
fe000403
fbfdfbfb
00000102
ff020000
f8fefffd
0b02f7f4
00ff010a
fe000102
fcfbff00
00000203
01050000
eff5fe00
05fd00f9
02010004
fefd0203
0000fefe
00020002
04010000
f7f9fefd
fefbfafa
06020403
fdffff01
00fffffe
00000003
00000000
fcfff6fd
fbfafffc
ff000204
04020203
ff030101
000000ff
ff000000
fafbf6fd
fdfbfbfe
03fbfdfc
05020207
ff080103
00000001
00000000
0004fc00
fcfaf9fb
0604faf8
fb000500
00fafcfc
00000000
00000000
fdfe0000
fbf5fdfd
ff01fbfa
fd0602fe
000000fd
00000000
00000000
00000000
00010000
01000000
02030000
00000000
00000000
00000000
00000000
00000000
00000000
00000000
00000000
00000000
00000000
00000000
00000000
00000000
00000000
00000000
00000000
00000000
ff000000
fcfefdff
ff030401
fdfbf8fe
0000fffc
00000000
00000000
fdfbfffe
fcfa02fc
01020600
fe020205
0001fdfa
0000feff
00000000
01fffcfc
fefe0300
06040100
04030702
fe03fc02
0000fdfc
fd000000
0100fcfc
00030103
0000fefd
0407fefd
fa0303fd
0000fdfc
fe000000
0105fbfa
0600fbfd
ff01ff02
03000001
ff0501fd
00ffeff6
00000000
0508fc01
000101fd
06010502
03030101
fd050500
00f9faf7
00020002
0002fefd
fe0002ff
0502ff00
04010105
f8fcff03
00fff8f4
fcff0000
fe04fffb
f90205fa
fbfa00fd
040201fd
fdfb020a
00fef5f8
00040000
00040400
fe000001
f7fe00fa
090603f9
ff050306
00fef6f7
08ff0200
070506fe
fa0000fe
f90403fb
0804fef5
00010105
00f70000
04000000
0105ff00
fc000200
f2fe0002
020300f3
000100fe
00fbfd04
02000000
0201ff08
00000104
f5fb00ff
020103f2
fb0300fd
00000102
00000000
04000701
00000202
f7fcfa01
020500f8
fe000101
00010604
06000000
020101fd
04060503
f9fbfb02
080300fb
00040504
00010303
00000000
050200ff
0c030400
fffcf703
01030603
00020a02
0005fefd
fe020000
00040400
08040300
0300fa01
01010205
ff020301
09030702
ff000000
01000000
fd070903
0500fbf8
00050006
01030200
01030102
fdfe0000
03040200
fc060605
03fffbf8
01010004
fd050200
0003fdf8
05060000
07070300
fc020606
0200fdfb
01fe0002
000305fe
0000fdf9
09040000
00060803
00010001
01fffcfd
00fd0005
050a0000
0005ff00
02040000
060a0404
00020004
0001fe00
0000fd01
fc040000
0000ff01
fe000000
0506fe00
fffd0003
00000000
fbf9fefd
fffe00fc
0000ffff
fe000000
0303fd03
ff000608
fcfdfcfd
eff5f8fa
f7fbfaf6
000002ff
00000000
fe000609
fd0001fb
0c00fbfa
f8f9000e
f9f8f8f6
000000fc
00000000
05060809
faf8fef9
0300f8fe
fb00faff
000001fa
00000000
00000000
fe000000
000000fe
00010000
00030200
00000101
00000000
00000000
00000000
00000000
00000000
00000000
00000000
00000000
00000000
00000000
00000000
00000000
00000000
00000000
00000000
00000000
00000000
ff000000
0300fb07
fb000401
000000fc
00000000
fe000000
00000000
f8fb0300
fe0101fa
01fefdff
ff000800
00000001
00000000
f9fd0000
faf4f5f4
fe050300
020000fb
08030803
00000509
00000000
f3f9fc00
03fdfaf6
01020302
fc000500
ffff0000
01030606
00000000
f7f8fefe
0500fcfc
00040507
fd0000fd
fc0302fe
00010906
00020000
f1f9fffd
0708fcf9
fbfd0506
00030001
0400fc01
00010206
00030003
f2f9f900
0aff00f5
fbfb0205
000002ff
01fafbfd
00ff0100
fe010000
f6f9fc00
0702fffa
f9fb0505
010100ff
fefafe00
feff0100
02fd0000
fafd0004
070305fd
fbfa0103
fdff03fc
fdfc00fd
0001fe00
00fc0300
fe0703ff
04010300
fefdfc00
02ff04fd
fdff00fc
0004fbfd
05fc0000
fefcfe00
03020001
01fffff9
ff010602
06040400
fdfaff04
02000000
01fcfb00
000301fe
0100fafd
0101fffe
06090204
00fafd03
fe000000
0201fffd
04070200
fffcf7fb
fd00fffa
04040201
00fa0506
05000000
03fe02fc
010b06fe
fffff8fc
fafd02fc
000008fe
00fa0004
05000000
ff0001fe
07030405
0002fe00
02fd02fe
00010707
fff802fb
ff000000
ff000000
03030807
00040300
00fd0000
fd010308
00ff01fa
ff0100ff
06040103
fc020607
000001fe
0100fe01
000002fe
0000fff8
06020000
0101fe03
fe010601
fe0204ff
fefcfb00
f90101fd
0000fefc
05050000
fdfefd02
fd020605
fdfa06ff
fdfbfcfd
faffffff
0000fafc
05030000
fbfe0003
03030402
fdfc0306
fefe0001
0002fdff
000503ff
03020000
00fc0008
06070103
00fc0005
0102fd00
00fdfcfb
0000ffff
00000000
fdfe0306
08060003
00fe0106
fffdfc03
02fcf9fc
00000001
fe000000
00fe0102
fffe0005
02000500
f1f6f702
fefbf2f7
00000004
00000000
02000008
05fefa00
06fe01ff
fbf0f1fe
0100fffe
00000002
00000000
fa040706
04f9fbfc
00000b0d
020302f8
0000fdff
00000000
00000000
00000000
00000000
00000000
00000000
00ffff00
00000000
00000000
00000000
00000000
00000000
00000000
00000000
00000000
00000000
00000000
00000000
fcfe0000
00000001
00000000
00000000
00000000
00000000
04030000
05040302
050d0a08
00000003
00000000
01fe0000
ff000000
fefafcfc
fbfdf6f8
01fe0206
fbff0d03
00000002
fff90000
f4fcff00
faf8f3f0
fffaf5f0
01010603
07000a03
0100070a
00000000
f8f6fb00
f6fe0707
f9f8f9f6
00fc00fc
fcf90002
02040105
02000000
0002090b
f7fc0e0a
fcf7f9f8
03fcfc00
00000402
00010003
08000000
060c09ff
f5fa0d0a
fafc00f8
fffe00ff
03060502
01fe00ff
ff000000
030402f9
05040a09
fd000000
00fcff00
08010406
00010001
f9ff0000
0200ffff
0601ff04
03070307
00f60002
03010103
0502fd00
f8030000
01ff00f8
fcf9feff
01060702
f8f9f500
f8fb01fe
010401fd
fa010000
fcfc00f8
00f7fdf9
04010304
fbfaf1ff
f4fbfafe
00fcfdf7
01010000
fcf9fff8
01fdffff
01fefe08
0000faff
f6fef5f8
00fdfcf6
01000000
00ff02fe
0303fe01
01020206
ff06fc00
00fefdfa
0000ffff
01000000
09040303
05fef801
01fd0005
ff090201
0803fdfe
0003ff01
08000000
02030701
05fef6fa
06ff0101
06030902
0a060400
00020105
05000000
02020503
00fff8ff
0800ffff
06070b06
02070407
000703fd
00000000
ff030604
fe020204
0802fef8
04090808
f9fc0101
000202fb
ff000000
02020906
fafeff03
0606fefd
0105040a
0000fbfe
0004faff
fa000000
fcf90608
fcfafffe
000203fd
f7ff0000
0003fcf9
0000f7f8
ff030000
04ff0002
00000308
01fd01ff
f3f3fcfd
0300fef7
000002fe
fc060000
01000202
08ff0206
fdfe0205
fef70003
fffefcf6
000000fe
f9000000
01030000
06040300
00ff0002
f7f4fb02
faf5f8f4
0000fffc
fe000000
08060208
0002fbfd
fafffcfc
fafbfbfd
fdf8f9f6
0000fffb
00000000
03070807
fbfdfdfd
f5fbfcfe
0001ff00
0100fdfc
00000002
00000000
0200fd03
0a0600fd
00000602
fb020903
02010000
00000001
00000000
00fcf6fa
00020200
00070a05
050000ff
00000105
00000000
00000000
ff000000
000300ff
00020001
01060700
00000000
00000000
00000000
00000000
00000000
00000000
00000000
00000000
00000000
00000000
00000000
00000000
00000000
00000000
00000000
00000000
00000000
ff000000
fcff0200
00fefbfb
fafcfcfe
000000fd
00000000
00000000
01000000
fefef902
fefcf6fb
0101faf9
01ff0304
00000001
00000000
03020201
0007fc00
02fffffe
05030603
ff00ff08
00000304
02000000
0a00fa06
02030000
fb000203
00000603
02fefd00
00fefffd
01000000
04060301
fd030201
ff000000
00fe0000
03010403
0000fe05
fffe0000
020306ff
01000304
feff0002
02ffffff
fd000402
0000ff02
01fd0000
02fd0403
ff000005
fd00fcff
0000fcfe
f8000103
000004fb
00000000
00ff02f8
fffa0104
fcfdfd00
0101fffd
f4fb0208
000000f2
03fb0000
02fe00f8
fafdff01
fafefafe
04040100
f6f8fb01
00000000
00fb0000
00fdf8fc
ff000104
fdfd0003
00060000
f7f8f6fe
0000ff00
fffc0000
fd00faf7
030800fd
03000306
ff030000
fbf9ffff
fefbfd03
00ff0000
fcfdf8f7
04040100
03070302
0001ff03
fef9fc00
00f8f7fc
00000000
040100f7
ff020205
05030600
02010605
fffefdfd
00fdfb01
00ff0000
00080402
00fafafe
080a0601
04fefe05
00030004
0006feff
00010000
0102ffff
fef9f6f8
03030304
0302ff00
020200fd
00020409
ff030000
08050302
f9f4fd01
f8f9fff9
010100fd
03010000
00faf7fb
040100ff
04050301
fcfa0004
faf8fefc
02050002
01010203
fffbfaf9
0a000000
fefd0304
ff0000fe
fbfe00fd
03040406
00feff01
000003f9
02000000
fcfffefe
fcff03ff
fdfe02fa
00040301
06000404
000000fd
00000000
fdfcf8fc
fefdfe01
0100fcfe
01010100
03000001
0000fefc
02000000
fcf9f9fe
03fef8fc
01030100
0100ff00
02040402
0000fe01
08000000
00fe0307
0a05ff01
060201ff
fe00ff00
050206ff
000000ff
02000000
03010404
03010000
000a0001
02000304
03040300
000000ff
00000000
00030700
020700f9
03ff0202
03030304
04020401
00000000
00000000
fffdfbfb
0204fcfb
00fafaff
fa00fd01
00fefff9
00000000
00000000
00000000
fff90000
01ff00fe
fdf7fafd
00ff00ff
00000000
00000000
00000000
00000000
00000000
00000000
00000000
00000000
00000000
00000000
00000000
00000000
00000000
00000000
00000000
00000000
00000000
fcfdfcff
00fe0a00
02fffe00
0000feff
00000000
04000000
fbfaff05
ff030501
00060500
fd0003fd
00fc0305
00000401
00000000
00f9fb00
02fd0400
00fe0805
ff0301fe
030401ff
00000103
05000000
010304fd
04000501
00000000
fc00fefb
fc00fefc
0000ff00
fe000000
03050000
01fcfc00
fd000203
00030300
040503ff
00030605
fc000000
0004fff6
ff0100ff
03fdfbff
02030003
0704ff00
00060508
ff020000
0206fdf8
fefcfd03
07060000
03060006
0405fe00
0001070b
02000000
0004fdfe
0203fd00
050802ff
00010200
0201fa00
ff01060c
00000000
0608ff05
04000000
03090700
00000404
0402f900
00020707
00020000
04020203
00fffffe
01020501
fe040605
0501ff01
000d0308
05010000
01080408
fefbfb00
05fffefd
05050200
05fcf900
0000f5ff
00000000
0501050a
fdff0001
04fbfefe
00040403
ff02fcfd
0000fcf9
fd000000
04040008
feff0002
02fbfd00
000201fd
ff020100
00fd0002
faff0000
02060206
fe010202
fcf6f800
ff040100
07030306
00fb030a
fbfe0000
fc000202
0000fe01
fdf8f4fc
00030100
0402fc05
00fafa02
01fd0000
ff0200ff
020000ff
fefaf600
060304ff
02010001
07fef504
fe000000
0200fefe
04000203
ff01fb00
020101fd
02000103
fcfaf800
01000000
fe0401fc
02030200
fe000405
040402fe
fc000105
00fefd05
fcfc0000
fa010100
0004ffff
fb010101
00fe04fd
fd000003
0000fe00
fffb0000
ff030102
00fefffe
fdfa00fe
00fefdfd
fbfdffff
00000001
06fc0000
ff00fe00
fcfdffff
fcff00fd
02ff0200
0001ff03
00000001
04000000
fdfb0101
0001fcff
fe00fdfb
01fe0406
0000fb00
00000006
02000000
00f70502
fc060202
03fe0201
fefcff05
0705fe00
00000000
00000000
00fafefc
ff010200
000503fe
05faff03
01020100
00000000
00000000
02ff0000
04050903
05070406
04050705
00000307
00000000
00000000
02000000
01000002
02030101
0104fe00
000000ff
00000000
00000000
00000000
00000000
00000000
00000000
00000000
00000000
00000000
00000000
00000000
000000ff
00000000
00000000
00000000
fe000000
00000000
00020400
ff050a06
060102fb
0000ff00
00000000
f8000000
030000ff
0301fe00
f4f90000
00fcf7f4
0100fdfc
000000ff
00000000
020407ff
0501fdfd
fcfe000c
010300ff
03070a07
00000402
00000000
040609fd
09070504
fcfd0203
04040401
fcff0402
00000100
fb010000
08050601
07040707
fbfc0003
03000100
f8f9fb04
000201fc
fe020000
00000100
050701ff
00f7f901
01000200
fc040102
00020001
ff0500fc
000500fe
0a050502
04f9f2fd
fe000002
fafc0304
00000405
fc000000
00010104
02050903
02f8f2fb
01030503
fc000309
00ff02fa
feff0000
02000806
00050904
f9eff3fa
010202ff
fffe0403
00ff0a01
fd01f900
060504fe
01080707
fafaf804
03040302
fcfe0105
000001fb
00000000
030506ff
00010709
fff7f4f8
01000302
05030502
0000fdff
00000000
0a040803
fd020308
fcf8f6f7
02fe0203
05ff0202
0000ff00
00000000
06030506
fdff0403
fdf5f6fb
01020405
0004fd04
0001f9fe
01000000
07060002
00020206
f9f1fafe
04010000
fe02fcfe
000000f9
fbfd0000
060403fa
02020409
fff3f6fe
00050403
fc01ff02
00fd04fe
fdfe0000
030100f5
02060104
00faf5fc
fd050608
f900fafe
f7010200
ff000000
0200fefe
fefffe02
fffef9f9
fe040809
faff01ff
fefcfcfc
03000000
010200fa
03000200
05fef9f9
0406fe01
00010503
00fffd00
02000000
fcfffffd
fefaffff
0600fd00
04080103
000300fe
00000204
00000000
feff04ff
00000001
05000003
05090305
00010507
00f8000b
fbfe0000
f8f80000
010404fe
0704fbfd
05060108
ff010703
00000107
00000000
fcfffbfe
fe00fdfb
0707ffff
07000002
00010905
00000008
01000000
00010300
fffdfefc
00fefffd
00fe0007
03070407
00000000
00000000
ff060400
fbfd0100
fcfefcfd
03070200
ff040a06
000000ff
00000000
fe010501
fe040e04
00090004
01000200
00000404
00000000
00000000
00000000
01040000
01000000
0401fe00
00000000
00000000
00000000
00000000
00000000
00000000
00000000
00000000
00000000
00000000
00000000
00000000
00000000
00000000
00000000
00000000
00000000
00000000
01010301
fe03fb09
fafefef9
000000fd
00000000
ffff0000
00000100
09040901
ff03ff01
f9ff0101
02fd03f6
0000fe01
fffb0000
08010000
000d0c08
02fffb00
03fcfe03
00000000
0000fe06
00000000
0801f703
0402feff
fc000207
02f5f8f8
02020405
0001feff
01000000
070a0105
03ff0303
fbfcffff
00fbfcf9
06050201
02fffb00
04000000
00030107
ffff0000
fbf7fdfc
fffdfffb
02020600
00fffd00
02030000
0000fd00
fefcfefe
000104fd
fd000004
fcfc09ff
0000fe02
00ff0000
040100f8
f9fafffa
02000200
00000404
fef80702
f7fefc03
04f90000
00050501
fefefbfc
01040004
fcfe02ff
04ff00fe
f9fd0006
03ff0000
03080501
00fffd00
00fff8fe
fff8fe01
02ff0200
fd060200
03fc0000
03080507
fafffffb
fbf8f3f5
03fb0000
05000701
faf9fc04
fffe0000
05030400
fe0c0406
00f5f6f5
03fefdff
040505ff
0000fdfc
fdff0000
05080300
040f0d08
fffdf9fa
0102fdff
fd0003fb
00ff0a01
03ff0000
05040603
05070706
fd000006
00000304
0000fefa
00010a02
01020000
01030600
0c09fefd
0103030b
00020300
0401fd00
00001200
00050000
00fd0201
0a05fffd
0300030b
01010201
030000fd
07fa02fc
08000000
fcfffb09
090500ff
06030409
0101fc00
02000100
fffa03fc
0aff0000
fdf70003
0808fdf7
01030406
0601fcfb
ff020405
000203f8
09000000
f9fb0003
0605fbfa
06050104
0200fffe
02020807
000003fb
07010000
00fdfe00
06fffe04
06050105
06030701
07080001
00000003
0a000000
fcfa00fe
00fcfbfe
0504fe01
07040606
020d0a06
00000001
03000000
eef7ff01
fcf5f8fe
0100fef9
060b04ff
050a0e05
0000ff00
00000000
f9f9f701
f9fafb00
fe040500
01fef7fa
0405ff0a
000000fe
00000000
00010b06
00fe0403
fffbfcf9
03faf4f8
fdf9fd01
000000fc
00000000
02090a0b
fcfe0006
0004fd02
f8fbfbfd
00fe0200
00000000
00000000
03000000
04070203
fe000608
0103fefc
0000fbfc
00000000
00000000
00000000
00000000
00000000
00000000
00000000
00000000
00000000
00000000
00000000
ff000000
00000000
00000000
00000000
00000000
00000000
01020000
02000002
00030504
00000100
00000000
00000000
00000004
fefafafd
01fe0006
0903fc00
fc01ff00
00000001
00010000
fd080500
0002fcff
fefe0304
0200fafe
01fafe03
00000001
03000000
00010c01
03070406
00fefb00
ff000007
00000502
0000f9fa
01000000
05060702
03030503
01f7f800
02000308
fbfdfa00
fcfdff04
03000000
00050902
02080503
fcfafc00
07fe0300
ff00fe01
fefc0001
fdfc0000
00fb0500
05040500
01fffc00
03030100
0702fb00
0000ff01
03010000
03fdfef8
0200fb00
00fbfa04
fa040303
0106faff
0600fcff
fd070000
00f8faf5
0100fefd
03faf6fc
ff010504
0000fffb
03010704
fdf60200
fdfbf8f7
fbf8f5fc
00fdf3f2
f9fb00ff
fa0100f9
01f6fff9
fcfd0000
f5f2f4f6
ecf4eeef
fdfdfaf3
fafafb01
f9ffffff
070309fe
fd000000
f5f3f7f4
f4f8f4ee
010303fc
00fcfb02
fc0301fe
00030807
fd000000
f6fbf900
0000fcf8
0506050d
05000007
01fefe00
00040707
ff010000
ff010205
070703fd
01060a0a
01060701
03fc0101
000b0205
01000000
05080602
060b0908
0103080a
080a0905
04000702
00080103
04020000
0a0f0404
05080a09
01040205
050502fe
02040401
00020103
06000000
08090807
04040505
fe000002
00020001
00fbfd01
0002ff05
05020000
08090603
04fb0001
fe040300
00fd00fe
fd00fc00
00000001
05060000
06050101
fe00ff00
fe0003fd
00000001
01fe01fd
00000000
ff070000
01000804
fe00fd00
00010202
01fd0003
01fdfd01
000809fe
f9030000
01fb0700
fefc00ff
00ff0303
01fafd03
ff0100ff
0001fefe
fa000000
fcfefd04
fdfffcfd
fe02ff01
f6f7fd05
0000fcf8
000000fa
ff000000
fcfcfc03
fdfcfd02
fdfffefd
f6fd0702
fcfbf9ff
00000105
00000000
03010001
00f8f8fd
00fcf5fd
fbf4fefd
0802fbfe
00000006
00000000
fefcfd00
090604fa
faff00f6
f7f4f2ee
00f8f4f3
00000000
00000000
ff000000
030801ff
00000000
00000000
00f80000
00000000
00000000
00000000
00000000
00000000
00000000
00000000
00000000
00000000
00000000
00000000
03010000
00000000
00000000
00000000
00000000
00000000
02000000
04050200
03060605
0000ff00
00000000
00000000
00020000
06020700
00fefdfd
02080508
00fafffc
00000000
00ff0000
040004ff
ff070e0c
fafdfafc
0c020a04
03fcfeff
00030300
ff000000
09fe03fd
fb00060c
0400f8fc
00fe0006
01f9faf8
00040604
faff0000
01fbff00
fcfb0002
04fefbfc
f4f8fcff
0ffef7f8
0501030c
fd000000
01fc0104
fe020200
0802fcfb
f7f9fc00
0602ff00
020a0402
01000009
0a06030b
f50006ff
0200fff9
fcfbfcfe
01030204
000001fa
01fb0000
05fcfb09
faff0301
ff0303f9
00fafe00
03000406
fcfbfdfe
f7fb0000
03f9f405
fe070303
000002fd
02fdfd00
02000000
fffcf900
f8f90900
fefef900
fe040601
050100fc
01fbfe00
0002ff00
0009fd03
fff90000
03fcf7ff
ff010200
03000200
03ffffff
030a0203
fcf8f709
fe000000
fffdfdfd
fafd0001
060200fe
0902faff
06070105
00f7fdfd
ff000000
030001f6
fbf80003
fe0604fe
0300ff00
00010200
00fa0000
03010000
060001f9
fcf6fb00
ff050901
fe010000
0802ff00
00fc0204
05000000
000309fe
fcf7f900
03040602
00000305
0000fdff
00000604
01010000
ff010000
02f6f0fa
03060709
00000404
09040105
000000fd
050000ff
faf9fbfe
04faeff3
03030b10
04020301
fefcff03
00010300
00ff0000
fafcf6f6
0900f9f8
00000b0d
ff0203ff
00f6fa00
00000000
fc000000
f8fff8f4
0d03fdf6
00fd0110
020403fe
fbf90002
0000fafb
fb000000
eff9edf6
080300fe
00ff0304
03020000
f8fdfd00
000900f4
fa000000
f2eff8fb
000001fa
04000003
01fd0005
fafffcfd
000201f7
00000000
f6f8fbff
fbfd01fb
01050704
ff000303
f901f7ff
000000f5
00000000
f0f7f8fc
fcfbf5f2
06040100
fffdfc00
0002ff00
00000000
00000000
f5fdf7f9
f1f5f6ee
0100fafb
fe00fcf8
fffff8f9
00000000
00000000
f90201fd
00f9f7f7
fbf5fcfc
feff01fc
0000fbf6
00000000
00000000
00000000
ff00ff00
040703ff
00f5f900
00000000
00000000
00000000
00000000
00000000
00000000
00000000
00000000
00000000
00000000
00000000
00000000
05020000
000000ff
00000000
00000000
00000000
00000000
00000000
fe040e06
0200ffff
0000fe00
00000000
fe010000
00000001
f7fffcfa
fe000600
080c0600
0003fbff
000002ff
01040000
f9fffb00
fff5f2f8
00ff0100
f9f8f8fd
f700fbf9
0000feef
01000000
000405f8
fcfafa00
00fcfbfa
fd01feff
f7fe0000
0000fbef
ff000000
01010302
fcfcffff
0200fefb
070d0900
fd000a05
fe0000f8
02000000
0304ff03
fdff01ff
05010203
09050604
01040607
ffff0000
02ff00f8
030304fd
fe000209
050100ff
06070300
0000ff00
00ff0103
fffe0000
02000000
f9ff0407
04010000
00010100
fd0300fc
00fcff00
fbff0000
01fcfdfc
00fe0403
04000100
02030006
f9fbfffe
00fb0503
fb00fa00
07fef9fd
04050602
030200f9
fc020001
fd00fbfe
00000308
f8000000
0200f5f7
02030300
0400f5fa
fb00fd00
fafbfbfb
0102fcf8
fb000000
0400fcfd
02020001
0000f2f6
f6fefbfd
fdfa00f5
00060b00
fe000000
01000000
07000100
0305fbf8
fffefefd
fffffefb
00ff0000
fd000000
fd00fa05
02030103
040100fb
fa080303
00fefbfb
00fffbff
fc000000
01070001
fefe03fe
060101f9
fbff0203
fe00fbfa
0000f3fe
fcff0000
0402fff8
fa000001
09060000
fafb0004
02060001
ff040001
fb000001
04f9fcf5
00000002
02030303
fffd0300
03070106
010401fd
fa000000
0301f5f8
00ff0304
04000604
fef9fefa
010203fe
00ff0804
fd000000
fd00fafa
0000fd00
02000009
fff5fbff
050304fe
00000705
fe000000
f7f5f6ff
fdfef7f4
00040301
fdf8f7ff
fbfe0600
00f6ff00
fe000000
faf5f7fe
fefcfbff
00040300
fcf2f7ff
fcf5fe00
00fffdfd
fd000000
f9f9f3f7
01ff02fc
04000304
f9eef2fc
fafcf6fc
0000fcf7
ff000000
fffa0000
02000000
08000003
f6eefbfd
fefcfffc
000000fb
00000000
01fd0000
fe000004
0508fc00
f2f1f407
fdf8faf7
000000fc
00000000
05fef9fd
fd040e04
060700fd
00030006
00010300
00000000
00000000
03000000
02070102
00040001
00010000
00030300
00000000
00000000
00000000
00000000
00000000
00000000
00000000
00000000
00000000
00000000
00000000
050400ff
0000fdfd
00000000
00000000
fd000000
00000000
fafd0000
03f8f9f7
fc000102
00000000
00000000
fa000000
00ff0004
f1fbfdfa
07fef2f8
050a0401
fef9fdfc
00010401
00000000
f90000ff
f1f1f9f4
fa00fef8
000100fc
0d0004fb
00000406
06000000
fd0303ff
fef4f2f1
04060a04
03020202
00fd0101
0000fc00
03000000
faff0503
fffdf3f2
080c0507
01fffc00
00fdfd00
00010104
03000000
fafa000b
01fffbed
ff05070b
fcf7fdfd
fff9f8f7
000c04fd
01000000
ff02f706
02f9f8f3
0008080a
f8fcfbfa
00f8fbf8
00031409
00000000
0101f900
02f5f9f8
050a0a07
f8fefd00
03fe02fa
fc011109
00fd0000
fdfefcfd
fcf9f5fc
05020402
020206ff
0e060303
ff03090b
01fcff00
f8000003
f7f6f8fb
00030000
06050504
0b030502
000f020b
06fc0000
f9fa0006
fef8f9fd
02000300
04040000
02fe0409
000400fe
02000000
f4f5fe00
fffd01fe
01010004
01ff0103
00fafd01
000407ff
00000000
f9f90005
00fffb00
02060301
fbfd0000
fcf903fc
00f90dfe
00ff0000
06070a04
fdf9f902
030b0501
fe00fe00
02fe00fe
00f60300
01fe0000
06020601
fdfcfc05
00040600
010403fd
fff9fbfe
ff00fdfb
fbfe0000
050400fe
fbfd0000
010503fd
000500fb
01faf9fd
f7fef8fd
f90000ff
04fefe02
fff9fe02
fc040305
020100fd
fff4f9fd
00010001
01040000
01fdfbfc
03fefe01
fcfe0202
fdfd0408
00f5eefb
00000804
ff020000
ff03ffff
01fcfe00
01fdff00
fdfc0204
fdfbf5f5
0000fefd
fe000000
fd03fbfe
05fffe00
03000002
fdf90105
fef7f1f8
00fb0000
00fc0000
fe00fdfd
0800fcfe
03000505
fbffff01
00f9f8f1
000000ff
fdff0000
0000fd00
00fc00ff
02040302
fbfffcfb
000000fe
000000fe
f9000000
0201f8f6
00ffff00
fd000000
ff00fafb
03050100
00000000
00000000
fdfbf3f9
05ff01fa
fafdff00
0502f5ea
00000001
00000000
00000000
ff010000
02000607
fcfefdfe
fcf8ff00
00000000
00000000
00000000
00000000
fdfe0000
00f8fbfd
00f7fe00
00000000
00000000
00000000
00000000
00000000
00000000
00000000
00000000
00000000
00000000
00000000
00000000
00010000
00000000
00000000
00000000
00000000
ff000000
fdfcfcfe
f8fcfe00
fdfefaf6
fffffcfa
00000000
00000000
fcf9fe01
f6fef9f8
01fefaf4
f7fd01fe
02ff0200
000002fe
00010000
fdf8f9ff
fffcfffc
00fe0002
02010003
04060100
00000005
01000000
fc0200fd
030001ff
03030000
02000100
000502fe
fffc0304
fe000000
fe0404ff
ff01ff03
0300fe00
00000304
08070502
feff0002
00010000
02030600
fd010302
030000fe
02010002
0b0602fe
ff02fd02
05030003
050a0100
fc0001ff
03030003
fe030002
02040201
00000702
05010000
030900ff
00000200
01010200
00000003
06000605
fe010905
ff000000
02050204
00000205
0000ff00
01000406
05080307
0000fd01
07ff0400
06060301
00040001
fdfefefe
00ff0300
00000004
0009fc02
08ff0000
02010602
0100fefd
00fa0502
01010000
00ff0304
00fffa00
06000000
03020004
05010100
00fe0001
010100fe
fd030002
00fe00fa
fc000000
00020703
04000301
01000105
00fe02ff
010004fc
00fa0002
fd000000
02030302
02000102
00000103
f9fe01ff
02030200
00fdff02
fefe0000
0000fd00
ff00ff00
04ff0003
fcff02ff
01010100
00fbf600
fb000000
00fe0102
040203fd
ff01fe00
00ff0100
07040600
0503fa04
fe000000
fbfe02ff
0202ff00
0000fefe
ff010003
04020100
fcfef805
06ff0000
fd0301ff
fcfd0005
02fefdfc
fe010002
f9fe0302
00fff903
ffff0000
0000fc01
fefcfc02
ff020200
feff0000
fafc0001
0000f5f7
03fd0000
ff050303
fffefcfe
fefbfefc
fffcffff
fe0202fb
0005fffc
00ff0000
03070003
ff00fc00
ff0200fd
040000ff
ff0400fe
000000fd
ff000000
01fbfdff
00040205
ff020401
00020505
fffdfefe
000000ff
00000000
fbfffff8
03030300
00040401
fffffa00
fe000001
000000fe
00000000
f5faff01
fefffdf9
0000fffd
fdfffcff
01fefef9
00000000
00000000
fc010000
00fc0000
faf9fd00
fa00fdfb
0000fdf8
00000000
00000000
fe000000
000000fe
fffd00ff
00ff0000
00000000
00000000
00000000
00000000
00000000
00000000
00000000
00000000
00000000
00000000
00000000
00000000
00000000
00000000
00000000
00000000
00000000
00000000
00000000
00030502
00000000
00000000
00000000
00000000
00000000
fffdfdff
090a0001
06f6f4ff
0000fd00
00000000
00000000
01ff0000
edf2fe02
f9fbfcf6
01f7f8fd
00fff9fb
000000ff
00000000
fdfefdfb
fff90204
010003ff
fa00ff00
fc0602fa
000000fd
04000000
f5f50e09
00f9f8fd
00040302
00090300
020409fe
000000fc
09020000
fffafb03
fafafef9
fefefdf8
00070402
fcfa01fc
0000fbf9
01030000
fff90004
f701fdf9
fffcfcfb
ff010001
fe000000
000000fe
fdfe0000
0003040e
000002ff
01030101
fe010100
05020204
00000603
ff080000
04090207
06070405
01fd0405
06020100
04010505
0000fc01
06050000
01060906
09050603
01fb0306
07020001
03050004
0000fa06
06fd0000
0a030a01
0c0c080a
00f6fb09
00050602
01040001
0000fe05
04030000
04070704
0e0e0a06
f8f7ecff
f90003ff
f9fdff01
0000f900
06040000
000003ff
000a0703
fcf8e6ec
fefe00f9
01f9fafe
0000fefd
05000000
04fc00f7
fa000200
fdfceee7
fbfafefa
02fefc00
01090602
06000000
00fe0000
e8f6fb02
00fe00ea
02fc03ff
000103fc
030bfe00
02000000
fafefc00
eeedeffa
010200f4
00010203
04000703
0000ff03
fa000000
f2f9fcfb
f2f1edf2
03050400
fdfefd00
ff000303
000000f6
f9000200
eef4fbff
f4f0f2f9
02050bfe
fe0201fc
fef9fc04
00000000
fc000000
f6fbf8f7
00ffeff7
00010000
030105fc
fefdfdff
00000002
f7000000
fdfcf9f5
0709fdfa
000200ff
030a0101
090205f9
00000009
fc000000
ff00f6f6
ff020200
07020000
020a0807
060502fe
00000002
00000000
060800fa
fb010100
04010002
05060805
00fc0106
00000002
00000000
0000fcfb
fdfefc04
020000ff
0b080702
f3fc0100
00000000
00000000
fefef9fe
00ff0402
02050003
06060406
f80005ff
00000000
00000000
fdfaf8f9
f9f9f5fc
040001ff
07000004
00080300
00000000
00000000
00000000
fd010000
fffd0400
fc000800
00070704
00000000
00000000
00000000
00000000
00000000
00000000
00000000
00000000
00000000
00000000
00000000
fefd0000
00000304
00000000
00000000
00000000
00000000
06040100
08090706
fa000004
00ff00fe
00000000
00000000
00000006
00050801
00020508
ff020501
f7f2f600
000006ff
01030000
03040000
060100f8
07090404
fe060302
f9f6f401
fffffefb
06000000
fe080202
05050a03
05080e09
fb00fd04
0204fcfa
fdf8fffa
00000000
00fc0100
0c0f0802
08080709
05080507
ff040600
fafe05fc
ff010000
fe00fcfa
07070402
0c050205
070b0810
fc040606
fc0203fa
faff0000
fdfdf9f3
fdfdfd01
050600ff
090a0a0a
010a0206
00030afa
f7fd0000
fffdf6f2
f5f8f4fa
fdfaf5fb
050602ff
0308fe01
0001fcf7
f8040000
f8f7f1f8
f2f4f1f7
f4f4eced
0000fafc
f9010001
00fffef9
fffe0000
faf9f0fe
faf7eff6
f8f3f3f5
fffffffe
00030309
00fafeff
01fa0000
fbfcf705
00fefdfa
01fdf8fc
02000200
faf9fe05
00000000
04000000
00000002
04030102
04020202
01000102
f3f70001
0000fffe
02000000
0b0c0201
00050004
030603fd
fdfe0202
fbfcfd00
0002fef7
06000000
04090003
00ff00fe
030000fa
fe000102
fbf8fbfe
0103fbf9
05020000
02010103
fd0200fe
01ff00fe
fb000406
fefc01ff
0402fb01
00ff0000
fa000102
fdfe0403
0200fffd
fdfe0104
f7f7fefc
010907fc
fe000001
000001fc
00000001
fefefbfe
00ff0305
fcfffffc
030a0500
fa000000
0301fffc
00030001
01fc0102
00fc0102
fffdfe03
000100ff
00030000
00040300
03060205
00ff0302
05ff0000
fe000004
0000fcfb
00040000
01feff02
0303fcfc
fc010606
02feff02
05fefffe
00000305
00030000
04060100
00020003
f90000ff
02ff00fe
02fefa00
00000106
fc000000
0705ff02
00000200
fdfc00fe
00fefcfc
09090204
00000104
00000000
00fe0601
ff000002
fbff0202
020001f7
020405fd
00000003
00000000
00fffc00
06070807
fdffff05
fdff02f8
ff02ff03
00000000
00000000
00f9f4fb
090a0a07
0e020305
080a0509
0000010b
00000000
00000000
00000000
ff000000
00000000
00000105
00000000
00000000
00000000
00000000
00000000
00000000
00000000
00000000
00000000
00000000
00000000
00000000
02000000
00000000
00000000
00000000
00000000
00000000
fffd0000
0003fefd
04040300
0000ff00
00000000
02000000
00ff0004
03070002
07080409
060e0b05
fcfe090f
00000200
00000000
01fcfffe
05fffbfe
03040704
01070300
fe000603
00000206
02000000
fefdfdfb
fd01fdfc
00040302
00000100
f5fbfd01
000100fb
00000000
00fdf7fd
ff050402
fffe02fe
04010000
02fc0104
fd000501
01000000
fdf7f3f8
fd00fcfd
01000102
01010401
03ff0003
ff0502ff
06000000
00f8fb00
fcfef6fc
0603ff00
ff060203
01040000
00040403
06040000
fafefefa
fdfd0001
0005fefe
03000601
08050105
01040807
030a0000
f9fcf4fe
fe01fefc
ff0503fe
02000403
0703fc03
00080a0a
04040000
03fcf8fe
03000002
030500fd
00050703
0604fd01
000d0905
05050000
fff5fe03
00ff0100
050603fd
fe070406
fefcf6fe
0000fbf1
05010000
fbfa0104
fcfcff00
ff0000fd
02ff0400
f3f3fcff
00fef9f0
02000000
f9000101
fcfbf9fd
010000fd
0100ffff
f0effe02
0000fdf4
fbfe0100
02010807
f8f7f8fe
01000000
0102fe00
f3f4f401
000200f2
fffe0000
fdff0208
fd00fcfd
02ff0400
02010100
f1f0ed00
0000f7f5
01fb0000
00000104
01fdfefc
01020202
ff050900
f0ebeefa
0100fef5
ff000001
03020400
040300ff
0402ff02
fe060b05
f1ebf3f5
ff00fff7
01000000
00000200
00030001
04050004
fa0a0902
fdf4eeef
000003fd
fcfb0000
00020202
010000ff
04030402
f4000600
fcfff2ed
000000fd
fdfc0000
0503fbfc
02fffe00
02010200
f1fe0601
fdf4efea
00fffffe
00fe0000
fffdfcfc
0000fffe
04060002
eff502fa
fff8eede
000000ff
fd000000
fff90100
03fdfbfe
00fe01fb
e9f9f6f9
00fdf7ee
00000000
00000000
00000b00
0000fe00
00fe0601
ebeef7fb
fdfbeef6
00000000
00000000
080001ff
00050100
00fb0005
fbf4fc01
0100fdfd
00000000
00000000
05fcfafa
07060004
fafe0b05
00fe0506
00000000
00000000
00000000
02000000
00000002
00030001
00ff0002
00000000
00000000
00000000
00000000
00000000
00000000
00000000
00000000
00000000
00000000
00000000
00000000
ffff0001
00000000
00000000
00000000
01000000
01000000
03000201
0001fd01
00fb0100
00000000
00000000
04000000
050200ff
0505fd04
00050002
fdf9fe01
fdfefb06
0000ffff
00000000
0002ff01
0600f7fc
04000001
ff000001
fefd0100
0000fff8
fe000000
ff03ffff
fdff02f8
fffefdfb
020401fb
07fa0000
000001fe
01020000
f902fcff
fb0004fc
01fffdf9
fdfefdfd
010002fd
00fff3fe
fc010000
f901fef5
fcfe00ff
fe0003fe
fafefdfc
fefaf9ff
00f3f600
f1ff00ff
f8fbfdfa
03fefdfe
01000708
fffdfe03
fd000000
00f5f3fc
f4f90000
01020703
0a060604
00000709
05000204
fe030104
08f9f3f4
fff80000
05070201
0a050805
00fc0607
02010302
0006ff00
02fbfbf5
0006ff00
00050300
06040304
02fefffe
ff040001
01010100
00eff4ff
f9050000
fd040101
fcfdfd00
02fffdfd
02010104
05010104
01f8fbff
fb000000
fc0300ff
fafdfb00
fa00faf7
fe040301
08fb0201
00edf704
ff000000
fcfcfc00
fbfdfcfe
00fbf9fc
040100ff
07000406
00fd0004
fafd0000
00000406
f8faf701
0100fafc
050300fd
04050706
00fa0409
fbfd0000
09090c02
fffcff09
0004ff00
0301fff6
00020006
00fb0207
00fc0000
0c0c0801
040a0c0d
ff030707
07fe00f4
fd00fcfd
fefafffd
ffff0000
0b080500
0e0c0e0e
ff01050b
03000700
00030000
fefcfdf5
f9ff0000
02ff0700
08050706
0001fd04
05020604
0004fe02
00fffbfa
f8fd0000
fffdffff
fdfd00ff
0403faf9
02fe0305
0003fdfe
00000201
f8fc0000
fef7f7f4
f8f7f8fd
000200fa
fcff0004
f60101fd
00fafd06
fc000000
fe00fcf1
f6f9fbfc
01000000
fefe0400
fdfe0100
00000000
ff000000
0003fbf7
fffcfaf9
00030300
f901fffc
000504fb
0000fe09
00000000
fffd0507
fff8f6fa
03000000
01000602
08060704
00fffe00
00000000
fbfa0301
000300fd
03010002
08fffc05
fcff040c
00fffffe
00000000
fffefdfd
0505fc00
050f0801
0701040e
00030409
00000000
00000000
04010000
fffa0003
03060202
00040002
000201ff
00000000
00000000
00000000
00000000
00000000
00000000
00000000
00000000
00000000
00000000
00000000
00000000
00000000
00000000
00000000
01000000
00000000
fcfefcfe
f6f5fbfb
fffefbf8
0000feff
00000000
04000000
fe000001
01040202
02000502
f9f1f2fa
020203fc
00000403
00000000
01f8f900
04000200
02010206
fd0000fd
0000fbfb
00000000
00000000
0000fbfe
02f9fcfc
000001fe
ff0003fc
f4fafe00
000100fc
00000000
fdfef9ff
0202fb00
fe000100
010205ff
00000003
fcff03ff
00000000
fcfff4f9
00020001
06000504
01020005
06000001
fd020400
01000000
0304f9f6
00030002
04030203
05020407
04040300
00030308
03ff0000
fd03ffff
02060306
01050503
00fd0100
03010201
fe04070b
00010000
00060004
07070602
fd080401
fffefd01
0406ff02
00020505
04000000
02010406
0501ffff
ff060806
ff000100
06020003
000c030b
08020000
03000808
00fefdfe
01040601
030104fd
01ff0000
0008fcfd
02000000
01fe0609
0101fffe
00000200
ff0001fe
fd0200ff
000301fe
fe000000
fd000003
0100fbfb
010003ff
0203fffe
00fe0104
0000f900
fafe0000
fbfeff02
fdff00fe
0000fefe
000302ff
ff000003
00fe0004
fb000000
fefbfb00
ff00feff
00fdfefe
ff000000
01010001
0101fcfd
00fe0000
fe0000fd
fefefeff
00ffff00
00ff03ff
fffdfe04
0801fe02
fa000000
fe01fffc
0500fe00
ff02fd00
0500fffc
fe01ff03
fe00fdff
fa000000
fb0201fa
ff020000
fcfe0002
030500ff
ff01ff00
0000ff02
fe000000
0000fffe
fe01fd00
fdfd0301
050000fa
fffffaff
00000201
fefc0000
03020101
010001ff
fefbfffd
fe0001ff
fafafcfd
00000200
05ff0000
0305ff05
01010404
fc02fdfe
f8fe00fc
02fef8fb
00000203
04000000
03fe0203
01020301
00fcfe00
fb000200
0401f8fc
00000205
00000000
00ff0603
00020201
fffb0003
00fef9fc
0500fefe
00000000
00000000
0400fefa
00010001
04010301
0afe0006
01000004
00000000
00000000
05fcfbff
05060b04
05080b09
09090c07
00010509
00000000
00000000
03000000
01000003
03040103
0004ff01
00000000
00000000
00000000
00000000
00000000
00000000
00000000
00000000
00000000
00000000
00000000
00000000
04010000
00000000
00000000
00000000
00000000
00000000
05020000
00060801
ff000000
00000000
00000000
00020000
ff000000
fcfdfcfa
0e050100
10030208
0000fc0b
00000000
02070000
faf9ff00
02fef7f4
0d0c0502
0c0d0307
fafc0009
000000fd
00010000
fdfbf9fb
fd00fff9
0302fbfe
0800f600
f8f3f906
00fdfdff
ffff0000
00faf5f4
fcfc0402
00090706
fffbfe03
fcfbfbfd
0000fcfa
fafb0000
fbfb07fe
fd000506
05080502
fef9ff04
f804f4fe
000000fa
fbf60000
09010704
f3f90409
0202fefc
fefaffff
0002fff7
0000fefb
00fe0000
0d080500
00040e0e
0603f9f9
fefdf900
0500fef6
000000fe
03000000
0902ff01
fd08ff0b
0506fcfc
02fefc00
040100fd
040704ff
fc000000
02fefe02
0003f9fa
070afdfa
f8f8fb04
01ff0404
00070401
01000000
00fffffe
0000fdf9
0407ff04
fbf3f401
f6000301
0000fbfd
04000000
fcfdfdfc
02fdff00
fd05fafd
03faf4fe
ff010403
0000f500
01000000
f5f7fdfb
00fefdf9
0100f7fc
04fff801
030305fc
0000f702
fe000000
f6f6fff7
01f4fbf8
fb01ff00
fbfaf4fb
f8f903fc
0000fcfc
fe000000
f9f8fbf6
00fafd02
f90001fb
00f8ecfb
0000fd00
000201fc
00000000
f8f9f9f8
010200fb
fa040900
0200f5f3
00fefa02
00000700
00000000
f6fbfbf9
fcff01fb
f1040801
020800f1
ff020102
05fa0208
fffe0000
00fef703
00f9fefe
f1000c06
fcfdfdf9
fcfd0204
01000501
00fe0000
fafff9fc
09fdfafd
fb06060f
fefefefb
fefaf901
00000804
03000000
fcfefbfd
0802fffa
fe050506
0104ff00
00f7fd01
000209fe
00000000
f9fe0301
0400fffd
fe070401
0207ff02
fcf6fa01
000001fb
00000000
fdfe0300
02fffe02
02070707
fc000406
fe0000fd
00020000
00000000
fd01ff00
0700fafe
0304fe02
0e080807
070a0709
00000002
00000000
ff00faff
00fd00f7
fb0902fc
020e0e03
00070101
00000000
00000000
00000000
050701ff
eefdfef8
000501f9
0000fefd
00000000
00000000
00000000
00000000
00000000
00000000
000000ff
00000000
00000000
00000000
00000000
00000000
00000000
00000000
00000000
00000000
00000000
00000000
00fe0000
00000204
00000000
00000000
02000000
00000000
05060000
07040001
00fd040a
01ff0101
00000000
08000000
00030007
07060b0a
fe010a0d
02020501
fc070605
00000100
01030000
fe00fb02
fc0a0903
020000f8
00020405
fffbfb02
00fb0005
06000000
0004ff05
fc0103fb
fdf8f7f8
fefdf9ff
ff0000fd
00fffc06
00000000
02080704
0000fbff
fdfdf9f7
f9fffc00
030002fe
fa02fc08
00000000
0300fcfe
000302ff
faf9f3f8
fafeffff
000603fb
fffe0203
00000003
fdfef9f2
fd0601fe
fdf5f2f5
03000200
06010303
01010102
02000000
faf6f7fa
01030100
00f8fa00
fd010105
fe010000
02030000
05ff0000
fefe00fd
0103feff
06fcfb02
0001050b
fe000403
ff030805
fcfd0600
02fffc00
03fefd03
0802fdfc
04020306
0003ff05
00f70800
f9ff0000
fbfbf9fc
fe0201fe
010d05fd
00000001
f302f6fd
000910fa
fc000000
fefefefc
0604fb00
fd070e05
f901fffb
fefcf8f3
000d0300
06000000
00050005
060805fe
03090806
fc030002
08fef7fb
000b080c
04040000
05070303
050402fe
06080704
02050604
02fdfb00
01020808
09050000
0703ff01
03050103
05050301
00050702
05000704
050a0702
03030000
fe040302
04010400
06040105
0000ff06
00fd0000
0afd0201
03010000
01fe0207
0a090201
05050507
00feff01
03fffcff
06ff0c05
07000000
03fa0206
0b0e0701
03000508
fc010105
0702fdfa
00060e09
0c020000
0100fcff
080703ff
f8f8fe00
0002fffb
00fdfbfb
00010501
06030000
fffdfffc
fd00fbf7
f1f5f6f9
0002fef0
fdf800fa
000b09fd
00000000
f800fdfc
f8f9f5f3
f0faf8ee
0103fcf4
fefa0003
000100fe
02000000
f90000fa
f5f6f6f5
f1f8f7f2
fbf8faf7
00020400
00020500
05000000
edf4ffff
f1f3f7f4
fcfdfaf4
fff5fff7
fffd05fa
00000106
00000000
f3f3ff00
f9fdff04
03faf3fc
f9f40005
0600fdff
00000008
00000000
ff00ff01
0501fbfa
fbfd06ff
030001fe
00fdf5fe
00000000
00000000
00000000
00000000
00010000
fefc0000
00fefc00
00000000
00000000
00000000
00000000
00000000
00000000
00000000
00000000
00000000
00000000
00000000
0000ffff
00000000
00000000
00000000
00000000
00000000
fdff0000
00fefaf9
02040200
00000001
00000000
00000000
00000000
020c0501
01fefffd
02070b06
0200ff00
00000004
00000000
ff00fd00
05010800
04030708
06040008
050b0306
00000408
00000000
fafdfafb
03060901
fb01ff00
000201fd
06080600
00000806
00000000
f7f90005
02040400
f7fd0001
fefdfdfa
030203fd
00000403
04000000
00000003
0709080b
fdfffb01
00000202
00fe0000
00fc0003
fc070000
00010400
08070407
fefcfc02
fe0100ff
04030103
00fe0105
faff0000
feff0209
09070303
0000fc03
0000fcfc
06050103
00fe0406
fbff0000
fffb0003
0f080602
f9f9fe05
0100fffd
01050303
00010807
fcfd0000
fcfdf9f9
090401fd
f1f2f501
000202f9
000000fe
00020003
f9ff0000
0002fef6
08050500
f4f8f902
0000fdfb
0000fd00
0001f901
fb010000
080500fd
07050502
f5fbfc00
fcfefef9
fcfeff00
0000f902
01030000
06060400
02060200
fefafcff
02fcfdfb
01fe0000
0000fb0c
07000000
06060700
030905fe
fef7fdfe
0500f9fe
00fb0001
0000ff03
08000000
03030505
fc050402
fffaf4f9
01ff01fd
fbf900ff
00f7f8fc
04020000
02040001
fd0001fe
fbf6f2f2
000201fe
fbfcfeff
000002fc
fe000000
fcff0100
f8fdfbf9
fdfef5f3
ff05fe00
fb000101
ffff00fc
00020000
fa00ff02
f4f8f8fb
fd01f6f5
ff020400
f8ff0304
000000fc
02000000
0000fb03
fafaf800
fe0002fd
02000101
fc010100
0000fffa
06010000
fe00ff06
0100f9fe
00000301
0601fe02
05030605
00000002
04010000
0301ff03
fefdff01
030100fd
060500fd
05040901
0000fcff
02000000
fe000309
00020301
00030303
000201fe
000304fb
0000ff03
03010000
03000408
fefeffff
03000807
01050a01
fb0000fb
00000003
00000000
04fefe00
04010609
0202080b
03050206
020207fd
00000005
00000000
04000000
00010708
02fcfe09
06fdfb07
000500ff
00000000
00000000
00000000
020c0300
fa000304
00060dff
00040605
00000000
00000000
00000000
00000000
00000000
00000000
00000000
00000000
00000000
01010000
00000000
05000202
01000202
00000000
00000000
00000000
02000000
07010000
0a0504fd
0b03090b
0101040b
00000000
00000000
06040000
fb000000
fff9fbfc
09fe00fd
fdfdfe00
00000002
00010000
fa000102
01020001
020002ff
ff000001
fd000306
000003fe
00000000
01010600
fdfffbfe
01fefdfa
01010000
06070902
0001fa00
00000000
03060000
00020100
010000ff
ff02ff00
060703fa
0000fe01
00000000
0400f8fc
05010300
00080206
00000001
000800fe
000304fc
ff000000
00f900fb
0403fb00
00010202
01fd00fc
02000000
0000fdfa
00000000
040002ff
03030001
fffe0002
f8fcfffe
fcfbf5fb
0603f9f5
00010000
020002ff
ff040204
fdfbfefd
f9f5fafd
f3f5f6f5
0402f8f1
fd000000
fc0100fb
fdfcfd04
fcfdf8f3
fcfaf9f9
f7fdfcfa
01f7fff2
fd000000
f9f7fbf2
f9f9f8fb
fd00faf6
00fffd00
ff0300fd
040202fd
fe000000
f8f8f4eb
f8f6f7fa
0204fdfb
05030204
040200fd
0003fe05
00000000
fdfcf8f1
fc00fcfb
030b0501
05080006
fe000300
00080007
ff010000
fe0100fb
0001fc02
010a0b07
ff0a0202
fdfd02fc
00ff0108
04010000
fd070502
070000fe
02050b03
fdfdfe03
000002ff
00000809
06000000
fd090201
0105fe04
03060308
00fdfeff
00020505
02010903
0a000000
01000304
000200ff
01050201
03ff0006
fdfe0205
06041005
01010000
02090305
00fd0005
03010300
02ff0103
fffb0100
00000e08
08000000
04080307
ff000005
0603fb00
03080006
05000102
00000b0a
02010000
02000407
02040201
05010101
05090002
01000506
00fe0608
f7000000
01040903
00ff0102
01fefbfe
ff020002
03fb0207
00000304
f8000000
ff050200
01000000
0302ff00
00fcf900
01ff0205
00000102
ff000000
00fefd01
00ff00ff
fafefa00
f9fafdf5
f7f90103
00000000
00000000
fefbfefc
fc05fd01
f7fefe05
010500fc
fe01fdfc
00000000
00000000
fffdfdfc
01080300
fb0002fe
fafbfcf9
00fffbfb
00000000
00000000
00000000
00030000
00000000
00000000
00fe0000
00000000
00000000
00000000
00000000
00000000
00000000
00000000
00000000
00000000
00000000
00000000
00000000
00000000
00000000
00000000
00000000
00000000
03010200
020100ff
00020000
00010200
00000000
01000000
000201fe
00000600
000506fc
feff0000
07fe00fc
0000fd00
00ff0000
fd00ff00
ffff00fd
0100fcfc
fe000301
00ff00fe
0001fefe
fd000000
fcfbfb00
fffffffb
00ff0001
fefe02fd
fcfd00fe
00030302
ff000000
00faf9fe
02feff00
02020001
fe010201
00fffd02
030001ff
fe000000
fcfcfbff
0200ff01
03020301
0200ff01
01010000
010002ff
00000000
0000fbff
ff000005
000402ff
020001ff
fffd0300
00000104
00000000
00020000
00020202
00010300
00fbfeff
00fd0401
fdfffe04
00000000
00040203
00ff0202
0002ff03
fe00fffe
02ff01ff
fffdfc00
fc010000
06040200
00020403
fe000104
00fdff00
02020405
00030008
02000000
03030104
04000203
00fe00fd
0100fefe
0a060300
fefbfb08
01000000
04020504
00040500
02fefe01
03fefd01
080700ff
00fefd05
fd000000
04030801
05020103
fe000103
0102fc01
ff040404
00000402
01000000
050304fe
02060302
00020305
ff0103ff
00000000
00fb0600
fe000000
030406fd
03050303
fe00fb02
fe000201
0100fd00
00fd09fd
fb000000
fe0302fd
03060402
0001feff
fe01ff01
0101fd03
00fe02fb
fcff0000
02fffcff
00020001
03050100
020003fd
fffcfd00
fffe00fc
fd000000
0000fe01
04030001
00020004
0200fffd
030202fd
0000fefd
fe010000
feff0100
02010100
01040302
00000000
010100fb
00000404
01010000
00ff0002
02020203
00030504
ffff0501
0101ffff
00000001
06000000
0000fe05
00010101
ff020105
0001fe00
000000ff
00000000
01000000
fcfb0000
f9fcfd00
fc0000fe
010101ff
00040000
0000ff00
fe000000
00fffe00
fcfe00fe
fffdff00
0001fd05
0400fd01
00000000
00000000
fffcfc00
00fefefd
00000200
00fefbfd
ffff0105
000000fe
00000000
01020708
00000401
00020102
02050100
00000304
00000000
00000000
02000000
01000001
03030101
0205ff00
00010000
00000000
00000000
00000000
00000000
00000000
00000000
00000000
00000000
00000000
00000000
00000000
00000000
00000000
00000000
00000000
00000000
00000000
ffff0000
02040303
00010100
000000ff
00000000
00000000
00000000
0101fb01
01040001
f6fd0101
0001fffe
00000000
00fe0000
00ff0201
0200fa02
02fbfd00
fdfb0002
00f9f6f5
00000000
01000000
01010200
fffcff02
00040002
fdfffe00
fefaf3fa
000000fe
00000000
02000501
04040201
03010001
feff0502
fafb0400
0000f9fc
00020000
01fefbfb
0300fe00
0202ffff
fe0002fe
fbf9fcff
00fff9ff
00040000
0000fdfe
0003ff00
00000100
020201ff
f800fe00
0000fefc
04020000
03030101
02fe0000
00010006
010002fe
fa000405
04fdf8f8
06030000
01050200
01fe0300
ff0100ff
00000300
ff050104
00fb00fb
05030100
00030400
00040105
00ff0104
02060100
f8050301
00faf9f7
fb020000
fc000501
0002fc00
06fefffe
02050304
00050306
0500faf7
fb000000
fd020307
fdffffff
030001fb
00030304
00000604
00f9fe00
00000000
fcfd0002
ff020100
03000102
020201fc
fc020603
00f9faf3
fbff0000
fcfc0100
ff00fefe
00010002
030200fd
fe070304
0003fcf7
00ff0000
0000fe02
02000300
03010401
01030100
f7030003
00fdfafd
03000000
fefbfd00
000201fa
00fe0301
05020000
fafdfffe
000600fa
06010000
f9f9fcfe
0200fdfd
fbfc0102
040301fd
f3fcfe00
000401f5
03010000
fbfefffd
02fefdfe
fefffa00
040203fb
eef9fdfe
000000f9
00ff0000
00fdfffb
fffdfdfa
ff04fffd
000000fe
f0f6fefc
0000fef9
00fe0000
fefefdfd
fcfefb00
00ff00ff
ff000104
f0f7fcfc
0001fffc
00ff0000
00ffffff
fffffcff
04ff0204
ffff0102
fafdfbfc
000000fe
fe000000
030300fc
00fffcfe
0100fffc
ff00fcfc
fefbfcfd
00000002
01000000
0a060d04
00fefcff
010200fb
faf500ff
0302fd05
0000fffe
00000000
02020f07
06060305
00fb00ff
0001fe04
00fcf9f5
00000000
00000000
0702fefe
01060403
ff060300
01000202
00010000
00000000
00000000
00000000
00000000
01000000
00030402
00010200
00000000
00000000
00000000
00000000
00000000
00000000
00000000
00000000
00000000
00000000
00000000
fc0000ff
00000000
00000000
00000000
fe000000
00000000
04040401
0003fd06
fbfafffc
00000000
00000000
fa000000
030402fe
00ff01fb
faf9fafc
0505fdfc
f90000ff
0000fffe
00000000
00080500
fefdffff
f8ff00fc
00fffcfd
fafbfe00
01fe03fb
ff000000
02060001
fefe0000
ff040602
0302ff00
0704ff04
03050301
04000000
f9000305
00f8f5fd
00030605
fffefcfd
fe02fbfa
01030603
03000000
f8fb0100
00f6f2f9
fb050302
fdfe00fc
fd00fdfc
03ff0506
ff000004
fa00fcfe
fef5f6f6
03060403
ff00fdfa
0101fe00
01040200
02000000
03feffff
fcf8f5fa
fe0704fd
0103fbf6
00040502
ff0101fe
03fa0000
0300fefc
fef8f4fa
ff040800
010200f7
ff020202
00fdf8fe
00fb0500
0000f9f5
fffff7fc
f6000807
00fefefb
fc02fffd
00f0f5f2
fb000000
fbfbf9f6
0504fc03
f4000a0b
fcfcfafd
fcfef8fa
00fafcf3
fc000000
0300faf8
07070000
fcfa040b
fefbfc00
03fefafd
00ff0100
09000000
00030100
01010302
fafb0004
fafcff03
0401fef9
00030607
07030000
01040403
03020502
02ff0007
fefc0402
05ff04f9
000a0a05
05030000
06000603
03fe0206
07040004
00020607
04000900
00080c08
01070000
ff020702
02ff0203
06040400
050a0406
04080906
fffc0a00
060100fe
01020404
fffd0200
080402ff
0b07060d
06030a05
09ff0909
09040000
00020909
02ff00fb
0d0500fe
04080407
08050704
01040700
05090000
00010100
02fc0102
01ff0000
07060302
00fe0006
000003fd
03080000
fffc0101
fdff0003
fdfcfc00
0103fffd
01010108
000a0501
fc020000
fcfbfefd
0003ffff
00f9fd01
0302fa00
fefb0600
0000feff
fe000000
ff00fcfd
0407fdff
fe00fbfe
00fffafa
00fd03ff
0001fcff
fd000000
00fff8fe
ff0800ff
fefdf9f9
0000fe00
fefcfdfa
00000206
00000000
f9f4f900
fb0000fa
fbf3f3f4
f5faeef5
050202fa
00010003
00000000
f6fdfd00
05fcf5fc
0001fff8
f8fbfbfa
00fffffb
00000000
00000000
faff0000
fdfbfffa
00fefefe
fffd0000
00000000
00000000
00000000
00000000
00000000
00000000
00000000
00000000
00000000
00000000
00000000
00000000
00000000
00000000
00000000
00000000
00000000
00000000
03000000
ffff00ff
00feffff
00000000
00000000
00000000
00000000
fefefd00
f3faff00
0001fdf3
00f8fe03
00000000
01020000
ffff0204
0600fd01
fefdfefe
09070303
f8f6ff01
00000000
00000000
07060403
fdfffafd
0301ffff
0100fefc
fdf6fa03
00ffff00
fd000000
fffc00fb
01fbfcff
02000102
fafc0401
faf5fa01
0000ff03
f5ff0000
00f900f8
fffcfc00
fe00fa00
ff000501
f6fcfcff
00000700
03020000
0100fa00
fa010109
fffdfdfa
04020601
f7000204
000003f9
03060000
0902fdf6
fd020308
fefcfffa
00030605
f8010002
fefff8f7
08fc0000
0103fffd
fb00ff03
0402fbf6
00030501
00020000
000002f6
fdff0000
02fffcfe
fd00ff01
020302fe
00020301
00060404
000001fe
f9010000
ff080000
000604fb
00070901
00000001
08000000
fff9fc00
f9ff0000
0307f9fb
08030300
04070607
020100fd
fefdfbfb
00f6fafe
f8ff0000
01fefcf9
03050300
03090709
fbff0200
fe01f9f8
00000000
fa010100
f9f4fb00
0402fdfd
02080503
fbfefe01
00ffffff
00030000
00060000
f9f3f2f9
04fefdf6
ff050204
f800fd00
fb00fefc
00fdfe03
06090000
fef1f4fb
f9f3f3fb
fd0001ff
000000ff
00fd00fd
0003fefe
08030000
01f8fbff
f7f2effa
faf9fcf5
0202fe03
01ff0004
0000fff6
08000000
f7f6fe00
f7f9f5f2
fffaf4f5
ff060105
04fffefd
000002f7
06000000
f9f8fe08
fafdfaf4
fd00f6fc
03070100
fe0001fc
0000fef8
0b020000
02020a09
00050100
00ff0000
03080103
f8faffff
0000fef9
02ff0000
06070d06
07050306
03000304
05040100
f8fbfe00
00000000
03010000
080204fd
08060707
00000000
05080302
fbfafb01
00000001
01000000
04000606
00020403
fdfdfdfc
0000fe00
040406fe
00000000
00000000
ffff02fe
00010503
f9030801
fafcfcfe
030404ff
00000000
00000000
fcfaff01
07070402
060800ff
00060608
00000504
00000000
00000000
00000000
01fc0000
07050000
0200fc02
00000000
00000000
00000000
00000000
00000000
00000000
00000000
00000000
00000000
00000000
00000000
00000000
01000102
00000000
00000000
00000000
00000000
00000000
04000000
070501f9
04070704
00000001
00000000
00000000
00000000
fcfdff01
ff040c01
070902fd
06070905
00000000
00000000
fbfa0000
04ff0104
02040409
050a0907
04000000
0000fefe
00000000
ffffff05
0100f6f3
02fe0001
070000ff
fa000512
0007fe00
03000000
f9f8f5ff
00f7f8fd
ff000100
00fd00ff
04fafa01
00000503
feff0000
f8f9f6f7
fefcfafa
06020003
00ff0001
0503fdff
00fcfdff
00fa0000
0005fbfc
ff000202
00ff0300
fefdfd00
00ff0201
00040002
fefd0000
0101faf5
03030301
fffd0000
00fbfc03
fe00fdfe
f8000502
fcfe0000
fffefff9
00020103
ffff0005
0303fd00
01000104
fcfcfb02
f6f90000
00fe0200
fdfefefe
03030802
ff040103
fafd0000
00000000
fffe0000
0200fd00
00fe04fe
000c0a02
fc0001ff
fbfa02fc
000100fc
00ff0000
04fdfafc
02fb0502
05050805
fcfbfc00
fdfaf5fa
000302fe
ffff0000
fe00fc00
fffdff00
01040202
f7fafe00
fffef5fc
00ff0400
fd000000
00010101
05020400
f9ff020b
fafcfd02
fdf9fbff
00f7fe00
fe000000
0001faf7
09040000
fafd0103
fcfffcff
0502fd00
00fa0005
01000000
0201fffb
fd00fc02
fefdfd00
0000fefa
ff000105
00fcf900
00000000
020303ff
f9fe0002
fff9f8f4
07040100
fbfa0203
00fffaf5
faff0000
ff020600
f4ff0000
fefbf7f3
0709090b
00030306
0000fefa
fe000000
fd010508
fd0003ff
050204fd
0a080807
0202060b
00000000
03ff0000
05040001
07000703
06040a05
0a020102
fcf9fd07
000000f7
06ff0000
0a04fd00
0a070603
02020908
00fdfa00
04f6f8ff
00000000
01000000
0600fbfc
06040d0f
00000204
f8000200
fe03f9ff
00000000
00000000
0304f8f7
0402080a
fbfa000a
f3fefe02
ff0004fb
000000ff
00000000
0105fbf1
fafdfafc
00000400
fcfb0003
ff00f8fa
00000000
00000000
fe030300
0502fdfe
06020000
f9020501
00ffff05
00000000
00000000
00000000
fdf70000
030501fe
01010002
00fdfafd
00000000
00000000
00000000
00000000
00000000
00000000
00000000
00000000
00000000
00000000
00000000
00000000
00000000
00000000
00000000
00000000
00000000
fefefd00
fcfdf9fa
0003fffa
00000001
00000000
00000000
00000000
fd060605
02f9fc00
f7fc0206
fbf4f6f5
00010600
00000000
03ffff00
0a0502ff
000100fe
000805ff
0607f6f9
00010a03
00000000
fc00fe00
0e0a0503
ff050908
0001fd02
0704fcff
00000f04
01000000
01f7ff00
040a0402
02010305
06090503
fe050604
000407fd
00000000
fdfefbfa
ff00f6fc
04030000
08090304
fbff020a
0000fefa
00000000
fc0100f8
fcf6f4f9
0101fe02
05060304
ff020404
00ff0000
02000000
0001fefe
fbfbfaf8
fd01ffff
000702fe
ff020402
00fb0107
00000000
000300fd
fffff8fc
fdfd00ff
fcfdfef5
00fd0401
00000202
f4060000
00ff0000
00fff800
f3fefdfd
0000fef8
04030302
0100fd04
fe020000
fd01000a
fffffffd
fcfafc00
0403fafd
08080100
0500f9fe
fd000000
0001020a
01010200
01030204
02fffcfc
03050202
00f9fa00
fd000000
02060009
fe020000
04070605
fbfcfdfb
050a0603
0000faf9
fe000000
03060201
ff030103
01030502
0002fefc
02060a00
000703fe
fc000000
fc000105
020704fe
fb010804
0103fb00
00060000
000403fe
fc000000
faf5ff00
fe01fffe
fdfb03ff
040501fc
feff00fc
000001ff
fe000000
fafcf6f7
f4f8f7fb
fcfafaf7
01010200
fe000103
000301fe
00050000
f8fbf9f8
faf7f8fb
fefa01fd
ff020000
f7fbfb06
000000fa
05010000
f7fffeff
fbf9faff
000403ff
fe000004
f6f5f702
0000fef8
01ff0000
f9fcfcfe
0001ff01
03050304
fcfeff05
f9f1f4fd
000000f7
00ff0000
fffcfcfc
04050103
05000004
f9fd0100
fcfaf802
000000fd
03000000
05060203
00020000
ff0000ff
00fdfbfa
fefefe01
0000fefe
01000000
09080e13
fe020108
fd00ff02
0200f8f0
00ffff04
00000000
00000000
08060c04
0200fe04
00ff0102
020000fd
00040301
00000000
00000000
09030402
02040701
09030704
0a070b0b
00010609
00000000
00000000
04010000
01020104
00010000
00010000
00000000
00000000
00000000
00000000
00000000
00000000
00000000
00000000
00000000
00000000
00000000
00000000
04020101
000000ff
00000000
00000000
00000000
00000000
fffe0000
0202f8f5
fefcf9fe
00000000
00000000
00000000
00000000
0506f7fa
f8fefe01
eb040800
ff01fff2
000000fd
00ff0000
fb000202
03fcf0f1
05030100
00ff0003
0a0300fb
00ff0100
00000000
fffffa01
fef7f6f7
fd030006
fef90100
0001ff02
00010400
02020000
00050403
0001faf6
ffff01fe
fffdffff
05fefe02
fe010205
fc000000
01fffb01
ff00fdff
00000004
0102fffd
04fd0301
fe0afbfc
04000000
060500ff
fffcfdfd
06040504
01060306
00010405
00030000
00020000
00050106
01000101
0802fcfd
0a0c0c08
05030409
00030a09
00fc0000
fcfd0108
00030000
fefcfafe
080c0707
05030408
0003fd05
04fef800
fe010808
fcfe0000
f0f7f7f6
0003fff8
0202fefc
0000feff
09ff0000
03fd0802
fe00fe04
eff900fc
f7f3f2ef
fdfffefd
00020606
03000000
02fd01fe
fffd0302
fa01ff01
f8efeef0
faf9fdfd
00000006
ff000000
fe02ff01
00020100
02040602
edf4f9fb
faf5f9fb
0000fcfe
fc010100
0304fff7
030a0800
03040202
f5fd0007
fcf9f2f5
0003fdf8
ff000000
fffd00f1
050609fe
09090907
fa010209
f7f7f8f1
00fffafe
fa000000
fafcfced
0000fef5
04080a04
fe010808
f9fafbfb
0005fc00
f9000000
f5f9faee
0001f8f5
04070605
fffe0209
eaf70000
0003fff4
f7000000
00fefffb
fbf9faf9
fe0502fd
01020304
eaffff02
00ff02f7
f9030000
040105fd
fef6fb00
ff0000f9
040401fc
fbfefeff
0000fff6
01040000
0b060403
00fefe04
00ff00fe
fe0301fd
fe030301
00fff9ff
06ff0000
07020505
01000100
02020003
02000500
06070703
00000004
09000000
ff010909
01000002
070404ff
ff030306
0601030a
00000006
06000000
010603fa
01020305
04000000
03030907
05030403
00fffc04
00000000
ff0105fc
f8000801
060206ff
08060501
0700fd01
00ffff07
00000000
01fdf9f7
fefcf802
04ff0303
03060600
00000101
00000000
00000000
ff000000
fef800ff
fcfdfffe
fcf8ffff
00ff0000
00000000
00000000
00000000
00000000
00000000
00000000
00000000
00000000
00000000
00000000
ff000000
070200fe
000000ff
00000000
00000000
00000000
00000000
fbfafbff
02fcfaf6
09060702
00010304
00000000
00000000
020000fe
f4fafb00
0200f7f5
07020002
01fcff06
0000fc00
00fe0000
fb000306
f7ff0002
04fffdf5
04000003
03fe0400
02000200
00000000
00fc00ff
fffe0407
07080400
0008080b
0f020006
03080105
fd000000
fdf70502
000100ff
09070300
05050405
0a010104
04051015
fc000000
fdf9ffff
ff0204fb
070800f9
01000205
06090603
020c0507
fbff0000
00fbfcfe
f7fbfefd
0000fdfa
fdfaff00
030001fd
00040000
00ff0000
00fdfd02
f6f2fefd
040701fa
fafbf9fc
eeecf5f4
0001fcfa
08000000
fbfafb03
00f8fcfc
030f0905
faf4f7fd
e4dbeaf1
0103faf2
08fe0000
fcfd0104
0402fe00
040a0b0d
fb00fd01
efe8eff1
000200f3
fe000000
ff020601
05080000
ff070808
fbfffe00
fcfaf6f8
00fcf4fa
01000000
fd040000
000001fe
fafe0204
fffefe00
fefc00ff
00f4f6f9
00000000
fdfcfa00
fefe0404
f8fafb00
00fffffe
fc050800
00fcf9f8
f8000000
02fe0000
01010005
fbf7fe00
02000201
070a0902
fffbfcff
fb010000
00fd07fd
01010200
fcf9fffe
02000002
030a0100
f9f7f900
00020000
01ff0702
01020403
fbfefffe
00ff0301
03030500
f2fcf303
0a000000
03030a00
00000401
00ff0201
03000401
05030504
fcfafb06
10ff0000
01040804
07020602
00fdfd03
fc010603
07fd0000
00f8fa09
03fa0000
01060602
01000502
00fefeff
02060601
06020002
00ff0008
00000000
00fd05fb
0000fe00
ff010102
ff010300
0003ff01
00fef903
00000000
f8f3f9f6
0000fbfb
0003ff00
01050501
000300fc
0000fdf5
ff000000
faf6f8fb
05fffffe
05090306
0802fc03
f8fbfbfd
000000fb
00000000
0d00fe00
00f9010a
060404ff
02080504
fefffcfa
00000000
00000000
0605fe00
0a070200
f8f90308
00fdf3f5
01060406
00000000
00000000
00000000
0f0efeff
0102fe03
02fff6fc
00000000
00000000
00000000
00000000
00010000
00ff00ff
00000000
00000000
00000000
00000000
00000000
00000000
00000000
00000000
00000000
00000000
00000000
00000000
00000000
00000000
00000000
00000000
00000000
00000000
00000000
00000000
00000000
00000000
00000000
00000000
00000000
00000000
00000000
00000000
00000000
00000000
00000000
00000000
00000000
00000000
00000000
00000000
00000000
00000000
00000000
00000000
00000000
00000000
00000000
00000000
00000000
00000000
00000000
00000000
00000000
00000000
00000000
00000000
00000000
00000000
00000000
ff000000
00000000
00000000
00000000
00000000
00000000
ff000000
00ff0000
00000000
00000000
00000000
00000000
00000000
00000000
00000000
00000000
00000000
00000000
00000000
00000000
00000000
00000000
00000000
00000000
00000000
00000000
00000000
00000000
00000000
00000000
00000000
00000000
00000000
00000000
00000000
00000000
00000000
00000000
00000000
00000000
00000000
00000000
00000000
00000000
00000000
00000000
00000000
00000000
00000000
01000000
00000000
00000000
00000000
00000000
00000000
00000000
01ff0000
00000000
00000000
00000000
00000000
00000000
00000000
01ff0000
0000ff00
00000000
00000000
00000000
00000000
00000000
00ff0100
00000000
00000000
00000000
00000000
00000000
00000000
00000000
00000000
00000000
00000000
00000000
00000000
00000000
0000ff01
00000000
00000000
00000000
00000000
00000000
00000000
00000000
00000000
00000000
00000000
00000000
00000000
00000000
0000ff00
00000000
00000000
00000000
00000000
00000000
00000000
00000000
00000000
00000000
00000000
00000000
00000000
00000000
00000000
00000000
00000000
00000000
00000000
00000000
00000000
00000000
00000000
00000000
00000000
00000000
00000000
00000000
00000000
00000000
00000000
00000000
00000000
00000000
00000000
00000000
00000000
00000000
00000000
00000000
00000000
00000000
00000000
00000000
00000000
00000000
00000000
00000000
00000000
00000000
00000000
00000000
00000000
00000000
00000000
00000000
00000000
00000000
00000000
00000000
00000000
01000000
05010302
090afdfe
06ff070a
02030507
00000001
00000000
0a070200
03060102
0006fcfb
05010100
06060706
0000fc08
00ff0000
fbff0101
0103fafa
fc000203
02fcfafa
00fffbfe
03000004
00000000
fffefaff
fcfcf5fa
fdf9ff00
fc06fe00
0a00fbfd
0305ff07
03000000
fdfd0001
000001f8
fe000100
0002fd00
fefcfbfc
07020002
05010100
02000004
ff010003
fc00ffff
fd0200fe
fbfe00fe
05fa0103
07010000
05fe020a
fc030003
0000fdf8
fbfa01fc
f1f6fbff
00fffbfa
06050000
0b010609
fbf90003
0603fdfa
fffefe01
f6f1f700
0800f9f5
08020000
02fffff9
faeff4fa
030202fe
fbfdfd01
f5f6f9fc
0600fbfe
00fb0000
fbf6fffe
03fbf4f9
00050607
04fffafd
fefafd03
02f0f0f0
fe000000
f8f9fcf9
0d03fc00
fe04050d
0602fcff
fd000001
09fdfdf3
00020000
f604ffff
0a0b0300
00000303
0507ff01
02ff0302
00fbfafc
09000000
fffcfb04
030a09fe
02000001
08000003
fdfe0400
0000fefa
01000000
01fbf703
0a080701
fffe0107
08010106
02040600
0000fffd
00ff0000
07fefd04
0e050806
00030006
0302fd05
050a04ff
00010004
f4ff0000
06fff9fc
0606fd02
02070905
00030103
000903fa
f602fe00
f3ff0000
fefef3f9
00fe01fb
06000905
fe020404
fe0303fd
0206fff7
fb000000
f4f4f5f9
00fdf9f3
0404ff03
fb030201
ff010100
0000fefb
06010000
fdfcf8fb
fffbfefa
010200fc
ff030003
fefb0000
00000201
0b060000
0103fcff
f9fcfe00
fffef8fd
fc02ff00
fefdfdfd
0001fe07
06020000
0605fc02
ff030003
00fcfdfe
fe00f9ff
00fffafb
0000fdfb
01000000
0200f5f7
080200ff
fffe01fe
f9fef6f7
00ff00fa
0001fcfe
03000000
0906fef7
0000ffff
080803fd
04000001
0302060a
00000000
ff000000
090c0b07
0506ff05
00030603
00fbf700
fff8f9ff
00000000
00000000
090d04fb
04080005
030603fc
fefefafb
0000fffe
00000000
00000000
fd000000
fdff00fd
03f7fdfe
fef7fc00
00010500
00000000
00000000
00000000
00000000
00000000
00000000
00000000
00000000
00000000
00000000
00000000
00000000
00000000
00000000
00000000
00000000
00000000
fefdff00
0303fffc
03f90004
00000000
00000000
00000000
00000000
06010700
f9faf902
010203fe
f8f5f601
00010000
00000000
05020300
0404090d
fafbfdfe
030400fd
f4effbfd
00000001
00000000
0a0b0700
ff040107
06fdfe00
fefefdfd
0a00fdfe
00f9fb04
00000000
06020400
faf3f904
0200fbfb
fc000402
fb0900fc
00faf4fc
01000000
fbf7fcfc
fff6f901
0404fcff
fdfb0102
050200ff
00faf900
000000ff
faf7fc00
fefdfcfe
fe0601fd
fffcfeff
00fe00fa
00fb0007
00000000
f5f8fc00
00040100
00010400
fffff9fe
0402fffd
01faf9ff
00fb0000
00f5ff00
00fe0302
fe060105
00fcf8fd
0601faf9
02faff04
fcfffe00
00eefdfc
01000001
fb000306
ff01fe00
fd02fefc
00f7f7ff
f8010000
fbfbf6f6
08020200
03010507
fd060502
fff9feff
fffcfafe
f9ff0000
06faf0f6
03040200
06050707
03050907
f8fffb00
00f6f6f5
03000000
fef0f5fc
04030601
05040606
05080508
f9fcf600
00fcfff9
02020000
f4f9fc02
030702fd
01030305
08060706
f6fefef8
00fff9f9
02010000
fcfafd05
0a03fc00
0304fe02
fb020504
06fef7fb
00f9ff02
00000000
fdf50100
0004fc00
02000201
f2f70104
fef6f5f2
fefefd01
00000000
f8f80400
fc0004fc
020302ff
eff2fefe
04fffbee
02fffafb
fe000000
f3f3f8fe
fefffbf3
ff010201
f9f6f9fa
050606f4
00000000
fdff0000
f9f6fe02
fff9f8f6
fb000100
fcfbf900
fc04fdfa
0000ffff
feff0000
f6f401fe
fdfefbf8
fdff0002
f800fd01
fafe0000
00fcfffa
00000000
fcfffa00
fafef8ff
fcfdfdff
01050002
fff60202
00000000
00000000
f9fcf9f8
00fcfefd
0102ffff
09090503
01fdff04
00010001
00000000
fe01000a
fdfcfefe
020301fd
070a0506
02ff0201
00000001
00000000
00fd0101
00f9fbfd
fbfeff00
fb030500
fff8f9fe
00000000
00000000
05020604
03050404
0400f700
fb05070a
0000fc02
00000000
00000000
03000000
02000003
08060001
00060201
00000000
00000000
00000000
00000000
00000000
00000000
00000000
00000000
00000000
00000000
00000000
00000000
0000ffff
00000000
00000000
00000000
00000000
00000000
01020201
ff01000f
fffcfbf7
00000000
00000000
00000000
fe000000
080600fa
f7f80000
05f1f5f6
00fbeef6
00000000
00000000
060902fe
fc0501ff
f9f9fff8
000001fa
f1fb00fd
000200f8
fe000000
01fd0003
fd00080b
fcfc0005
0700fbfe
0a0502fc
00fff9ff
02ff0000
fffcfd05
00ff0504
fb000307
0800fbfd
03ff0406
030200f9
06000000
ff010103
00ff01fd
fefc0200
040906fe
02000100
02ff0903
fdff0000
03ff0001
02010500
00010505
ff0105ff
09feffff
00050308
fcfc0000
020001fd
020401fd
ff000204
fe020600
050202ff
050a07fc
00ff0000
0201fffc
01040200
fef70000
fc000606
fffe01fa
0105ffff
04000000
020c0600
fe000603
01f6f6fb
03fb0503
f7fd00ff
0000fbfe
00020000
08060c04
f8f90106
fffbf8fd
01030206
f6fffbfd
00fffffd
02020000
020b0b07
f4f7fffe
0000fdf3
fc0304ff
f9fdfcf9
000001fe
01020000
02090d0a
f6f5f6f8
ff0000fb
0501fffc
fcf8f9fd
000105ff
fe000000
f9f8060c
fbf5ebeb
00ff0100
fffbfcfa
00f5f3f9
0002ff06
fe000000
e9f6fb06
05fee9df
fefd0305
fdf9fa00
04fef7f6
0000ff06
fa000000
ebf3f903
0e08fae2
f9ff000b
fffbfbfe
0dfdf8fe
00fb0008
00000000
f4f1fb00
090b02f2
fe00060b
020400fe
01fffdff
0000070a
00000000
f5f0f3fa
0c0b00f8
01060c07
05000202
fbfafa02
00010704
fd000000
fbfef3f4
0f0904fe
0607080b
08050302
00fbff00
00000806
f8fe0000
fa00fbf8
060500ff
02090707
0501fb02
0600fd00
00010604
fd010000
ff00ffff
01ff00ff
03040601
fc000101
0403fcfa
000001ff
fe000000
0002f600
ff0002fd
02040808
01010206
030503fd
000002ff
00000000
f700fb01
fff7fdfb
04080904
02040400
00050201
00000002
00000000
fd070008
02fcfdfb
fe03f9fe
fbfdfffb
fdfbfeff
00000000
00000000
060401fc
f6f5f800
feff00fa
fdfffdfe
0000fcfc
00000000
00000000
00000000
090f0300
08fe0908
fdf4fc04
00ff0000
00000000
00000000
00000000
00000000
00000000
00000000
00000000
00000000
00000000
00000000
00000000
00000000
0000ffff
00000000
00000000
fe000000
00000000
00010000
f8fefefe
00ff00fb
00000000
00000000
fa000000
fcff00ff
000004ff
f1f0f8fb
01fd0400
00fff9f3
0000ff00
00000000
03fffe00
00f70006
fff8fb05
fdf50205
0000fffd
00000002
00000000
fd0405fa
ff020302
fffefb00
fdfb0000
fe0001ff
00ff0100
fe000000
00060901
00fc0002
fefcf801
0000fe00
01030007
00fe01fe
02020000
ff000608
fe0303fe
02fcf9fe
080002ff
ff070a0c
000000fa
010200ff
03080705
02020305
0500fbfb
04020302
fafe0a06
0000fffe
fffe0000
01030708
01030700
04fdfaf8
00000101
fefe0201
0000f9fd
fc020000
00fe070b
02040701
00f7f3fb
02020502
f800fef9
0000fbff
0501fe00
00020204
07050501
fdfafa02
fd010806
fcfa05fb
0000fdf5
09000000
01000400
0400ff06
03f7fb05
ff030308
fcff02fc
0000fffd
00000000
04fe0100
050603ff
01fbfcff
01000000
fd050203
00ff00fb
00000000
fe0008ff
010601ff
fbfdf8fe
02030304
05050306
0000fcfb
04000000
00ff0102
fe0005ff
00fefefa
00020704
fdfdfe00
00fcfaf7
04000000
02050101
fafe0004
00fcfcfd
00ff0608
fbf80002
00f8fcf7
01030000
ff050005
fa010201
0302fffb
01000409
f9fdfb05
fb0000fa
00000000
ff03fa00
f5fbfcfe
020605fe
fefd0202
f2f8f9fe
00000000
fefd0000
00fffefd
f6f6ff00
0503fe00
01fdfdfc
f3f2f5f7
00000101
f9000000
fc0000f5
fdf4f6fe
02ffff07
fd00fc01
f1f2f9f4
0000fd01
fa000000
fbfcfbf9
02fefcf9
01000504
fc000403
fbfcfafb
00fb0005
f8ff0000
f9fafafe
0000ff00
05000301
02060609
fc000301
00000001
fcff0000
f2f6f5fd
ff0204f9
02040304
06020307
fb050707
000000ff
00000000
eff1f900
0202f7f2
00fe01ff
0001fd02
0007090a
00000000
00000000
f5000003
fffbfef4
060801ff
fcfffe00
00fe0502
00000000
00000000
fc010304
f9fb04fe
0006ff00
0001ffff
000001ff
00000000
00000000
fe000000
000700fe
00fe0000
03090400
00000102
00000000
00000000
00000000
00000000
00000000
00000000
00000000
00000000
00000000
01000000
00000000
00000202
00000200
00000000
00000000
02000000
02000000
0f0a0803
060afb01
fdff0000
00fffdfe
00000000
06000000
080902fe
fffafeff
030501ff
fefefef8
0000fb01
00000000
ff000000
fd0d0900
0100fcf9
fd020403
fafaf4f3
fdf2f9f5
000000fe
fb000000
f9040708
03040501
f8fa00ff
f3f8f8f9
fbf3f2f4
00fffffd
06000000
00fbfe07
04030608
fc000100
f9fa02ff
e4edfbf2
0000f7f1
04010000
0201fd02
00ff0203
fd020202
f8fa0301
e7e7f4f6
0000f7f1
fd000000
00fe0000
04070106
02030000
fefe00fb
f4f4f9fa
0000f0f6
fd010000
07000303
06040500
02020202
fe000300
fdfc0200
0603f604
03070000
06090700
fefe0204
000003fd
00050005
04000204
0400fe00
fe050000
08020400
02fefd05
0403ff00
07060606
04010409
02f4faf9
fe030000
00fd0103
00fcfc02
0701fffd
06030408
00030303
08fffb03
00020000
00000300
ff00fdfd
000500fd
01000106
06060b00
0004ff07
01000000
0000fc02
0002fefd
01000202
0203ff02
08070405
00090500
04010000
040301fb
000300fd
000000fe
06050300
ff040909
01010204
fb030000
04090603
0302fffe
feff00f9
06030005
ff060908
030902ff
f6010000
fd000100
fe01fffd
0500fcfb
02070005
fc010406
ff001001
f4010001
fdfcfdfb
fafbfbfc
0a09fdfa
04070305
fe020303
04070c01
f4000000
fbf9f9f7
fcfaf9f7
0a0802fb
00000000
00020206
0002fefd
fbff0000
00f903fb
fef7f800
00050605
fcfdfffe
00fafbff
00000306
ff000000
f5fd00fd
fe01fdfe
fd00060a
fbfbf800
fdf7f5f8
0000fb00
fc000000
f8fcf8fb
0202fefc
fb000205
f7f8f5fa
fafef3f7
00fe00ff
fb000000
00fdf8f7
0703fef9
fe000302
f9f8f5f8
fdfcfafc
00fffe01
fd000000
f8f7f8fc
03ff0203
00fffdfd
fefefff9
ff020400
00000200
00000000
fffafbff
01ff0307
fb00ff03
fa00fffd
f9fcfdfe
000000fc
00000000
02fbf7fe
fd080e06
03080200
07040a08
00050807
00000000
00000000
03000000
02060103
02050001
040a0403
00040501
00000000
00000000
00000000
00000000
00000000
00000000
00000000
00000000
00000000
00000000
00000000
01000000
00000102
00000000
00000000
02000000
01000000
03020000
0a0603ff
02000209
00010101
00000000
07000000
010200ff
fefc0800
02090c02
00fb0609
050000fc
0000fd00
00010000
ff02fbfe
fefd0604
010600fd
00fd0402
f9fe0000
0000f6f1
fe000000
fd00f9fe
fe03ff00
00fe02fd
000202fe
fa0402fe
0000f7f6
00000000
050400fb
00fdff00
01000001
fe010300
f50001fb
00fff8f2
02ff0000
01040103
00000000
05030200
00060507
f6fe00fe
00fe05fa
00000003
0002ff00
feff0000
07080102
01010206
fbf90000
0000fefc
00000000
fcfc0000
fefdfdfd
060603fd
02ff0002
fdfdfe04
0002f9fc
00060000
fefe0002
fafbfc00
0404fff9
03030004
ffff0002
0004fbfa
01ff0500
080002fe
f9fb0000
0201fcf9
01fafdfe
00000004
0003ff01
03ff0000
0903fbfb
ff020705
fdfffbf9
fdfa00ff
01010301
00010005
00000000
fffefffc
08060501
fefcf9fd
03010100
00060000
00050203
00000000
fffe02f9
09080500
fefafc02
01030000
ff050204
00050202
ff000000
02fdfef9
03000702
00fbfd00
000300fd
fafc0401
00ff0300
f8fe0000
0502fbfa
03010001
fcfffbfe
fefb0201
f8f60100
020608ff
f4fd0000
fb02fbf8
03020001
fdfffd01
fffffc02
f7f80103
03fe0800
f2fe0000
fffafdf8
000603ff
00fe0001
fc01faff
faf80000
00000b03
f8fd0000
0400fafc
fe060203
fcfa0300
fffdff00
f8fc0001
000003fe
fe020000
ff0101ff
080700fd
01fd0107
0000ffff
00fffefb
00000100
03050000
fafcfaff
0501fffd
00000206
fefefdfe
000200fb
000700ff
00020000
fefeff02
01020200
01030005
fbfcfb00
fcfd00fc
00000101
fd000000
f9fbfa00
feff02fc
01010503
ff00ff02
fd03fdfd
0000fffe
fe000000
f0f3f800
020200fc
0602fc03
07030302
fdff02fc
00000000
00000000
fafff4fd
fcf9f9f8
040afdff
00fefbf9
00fffefe
000000ff
00000000
fef7f4f9
fe040500
00fffdfc
05fcf800
00010100
00000000
00000000
01000000
00000001
fe010000
00ff0000
00010200
00000000
00000000
00000000
00000000
00000000
00000000
00000000
00000000
00000000
00000000
00000000
00000000
00000000
00000000
00000000
00000000
00000000
04030000
ff01fc01
f9fcfbfb
000000fc
00000000
00000000
ff000000
04040804
04000407
0100fe01
fb000900
000003fe
00000000
00fe0200
050000fe
fcfcfe01
00000201
06020201
00000200
00000000
00fefc02
fafffdfd
0000fef8
02fcfbfe
fc020603
00020afe
04000000
fcfb0100
fe0301ff
0000fefa
03fffbfb
03010501
fcfe0805
03010000
06020100
02000000
010100fd
ff020100
000406ff
fe05ff00
02010002
07ff0203
0a030003
05080607
02010205
060b0304
0002fffa
02020000
09060804
0b08080b
07090b0a
00fe0102
0a010003
0104fefb
08000000
070d0b02
0909090b
ff020503
fe000200
0503fe04
00fffd00
03000700
04090b06
fffdff00
fffcf9fd
000102ff
fc01fe00
00f8fbf9
ff000000
fffaff04
f5f4f3f9
faf9f3f7
03000500
f7fc0001
00fafcff
f9000000
f1f5f4f5
fcf8eff3
f9fcfafd
00010200
fb000101
00fdf9ff
f8010000
eeebe9f2
fffef8f2
fafe0100
ff0000fb
06000101
0000fe05
f8000000
f9eff5f4
030403ff
fafd0200
00fbfbf5
0c060001
010a050c
fd010000
03fff7f8
00050300
fc00fe00
fdfffdfe
010300fa
04090404
03020000
03fefd00
00010000
fbfe04fc
fcfbfefc
fffefefd
01050b00
09000000
02030203
02020002
04010400
fbfbfc00
fa01fafe
00050003
04000000
01000406
00000102
02060502
02ff0000
fb010000
000600fd
09040000
06040501
04000304
04040601
0100feff
f9f8fe00
000002fe
ff060000
0300fe02
02ff0101
02020804
080702fb
fe00fcfd
000a0607
fd060000
00fdfefe
06ff00fe
02fd0000
06050500
0000fafe
00000306
ff000000
08050000
03010101
04fefd00
01080706
0a0500fe
00000408
03000000
030600ff
fbff0204
08020401
0402080b
01020406
00000006
00000000
090cfbfe
fe0b0705
0d000304
0708090d
00040608
00000003
00000000
00f8f5f2
fe050006
07000600
04030105
00fdfc00
00000000
00000000
00000000
00050000
06020100
fd000a00
00fb0000
00000000
00000000
00000000
00000000
00000000
00000000
00000000
00000000
00000000
01000000
00000000
00ff0203
01000000
00000000
00000000
00000000
02000000
08000101
03030000
06080604
00000001
00000000
00000000
05040100
0800050b
04050500
fb000406
000000ff
00000000
00000000
00fdfb03
06080605
0602f900
02000205
f700feff
000000f9
01000000
01fdfb01
04080602
0502ff00
04fe0402
fefef9ff
0000fef9
fe000000
02fffcfc
050400ff
05080505
fffc0000
fcfdfcfd
0000fef9
f9ff0000
fdfdfefb
0803fdfe
06020500
fffefcfc
f7fe00fc
00fff0ee
04000000
fc00fcfb
05fe0201
fbfa0506
fefbfa00
f0fe0200
0000f5ef
00ff0000
02fefbfb
09030508
f8f8fd05
faf6f9ff
f0f8fffe
fbfcfef1
01fc0000
03fffbf8
04060406
f9f7fd04
fcfdfdfd
fef80200
fe000701
fafe0000
0202fcf9
01000604
fbfc0005
00000101
07000304
ff07070d
fafc0000
0204fbfc
02000102
fe00ff00
00040500
0b000403
faf6ff05
f7ff0000
0101f9fb
04040003
01fdf9ff
0200ff05
03000000
00f80004
f7ff0000
0202fafe
05020000
0300f8fd
ff050004
00020000
00fc0002
f7000000
0000fefa
0504fe00
01fefb01
03060002
ff010501
00f900fd
fc000000
fbfbfafa
05010001
ff010104
0101fcfd
fc00fe05
fff303fb
ff000000
fefefdfe
070600fd
fc000204
0300fdfb
00010006
fafcfffd
fe000000
fd00f9f9
030500fb
f8f90008
05ff00fa
00fe0003
fcf9fbf5
02010000
f8f7fdfe
020301fe
f9f9ff08
0401fffc
03060706
00fbfbfd
fe000000
f8f6ff05
000001fb
fd00fd04
080700ff
00060303
000002fe
f8fd0000
00fd000a
faf9f7f7
040300fd
020206ff
fd050008
0000ff00
fffb0000
fdfd0008
faf9f5f5
090502ff
01020604
04020000
000001fa
04000000
050c0b08
fbfffe03
01040600
02060503
02020204
00000101
04000000
0e0a07fe
0004030a
04070606
fdff0009
08fefcfd
0000fe00
00000000
060301fd
0005080a
02000e09
04010005
07040003
00000002
00000000
04000000
03010107
01040502
fd030400
00fffcff
00000000
00000000
00000000
fffd0000
0100fffd
0000fe00
00fefbfa
00000000
00000000
00000000
00000000
00000000
00000000
00000000
00000000
00000000
00000000
00000000
feff0000
01000000
00000000
00000000
04000000
00000000
00000000
050b0600
02070600
00000000
00000000
09000000
00000007
f6f9ff00
f4fe00ff
01050600
00000a08
00000300
00fe0000
00010100
ecf4fbfe
fef9fcf2
ff070702
04000000
00000106
03000000
fc00fe00
f9f3f7fa
fbf5f5f3
030203fe
fc000009
00ffffff
00000000
f7f5f700
f3f3f9ff
0000faf6
05080200
02000208
fe000102
ff000000
f8f1fc03
faeff0fb
05ff00fe
060b080a
05010302
ff0005fd
01010000
f504050b
00f9f3f6
00000402
060c0906
07ff0409
00040508
01040000
f4f90004
0500fcf6
00ff0105
04010102
0a000204
f900040f
ff000000
f8f5f1fb
04010100
02060709
fdfdf8ff
0903fd02
fc03020b
fb040000
04fffbf6
0100fbff
04040205
fd01fd01
060400ff
000d0b0b
f9050000
03010300
00fd00fa
030a01fa
00000200
0805fe00
00050005
f4000000
00010203
fbfc0000
04010100
fdfc01fc
0604fefa
00fff8fe
f8ff0000
fe000102
fb00fe00
ff0003fe
f8fa00fe
04060000
0000f2ff
f7ff0000
00030900
fc00fbfe
00ff0000
f5f8fbfe
0100f8ff
00fff603
fb000000
000305fd
00ff00ff
0000fafd
f3fa0101
fdfff5f6
0000fdfb
fdfc0000
020501fa
fefffe02
05fcf9fe
f8000504
f2f3f1f4
0000faf6
faff0001
090806ff
ff04000b
05fef6fa
fc010708
f2f6eff2
ff0000f6
f8000000
060605fe
ff040102
0701ffff
fd010509
f9f5eff4
0000fd00
feff0000
ff0107fe
02030203
05030501
fffe0903
f9f1efef
000000fd
fffe0000
0101ff04
000201ff
04020704
05f80200
fef6f1f5
000000f8
0f000000
ff00fe01
03010400
00010607
fbf3fdfa
00faf2f3
00000001
0c000000
04020205
06020001
fffe0001
f5fbfb00
00fbf7f6
00000000
02000000
fd000505
ff030302
00fe0201
fa00f9fc
fcf5f5ff
00000000
00000000
0400fcfb
00010304
080003fd
0d010906
0109090d
00000000
00000000
00fc0205
080301fe
0a060004
fff90004
000000ff
00000000
00000000
01000000
03ff0001
070b0002
00030002
00000000
00000000
00000000
00000000
00000000
00000000
00000000
00000000
00000000
00000000
00000000
00000000
fffc0000
01000202
00000000
00000000
02000000
00000000
00000000
fd000300
00040102
01020503
00000000
07ff0000
000000fe
00fbffff
05080a00
03050306
07ff0400
0000fc00
fffd0000
fb000201
fc0000fd
0201fd00
03040506
010000fe
0002fc00
fc000000
040000ff
0000fd04
030200fc
04040803
f9fbfd03
00070601
00000000
0203fdfe
fcf8fb00
050000fe
02060605
00fd0003
030001fd
00000000
ff04fe03
01f8f9f8
02fb0103
02070100
00030405
010004ff
03000000
fa04ff05
0700fdfb
01fe0001
03020000
04010804
0005fdff
01000000
fb00f9fe
000301ff
ff0200fe
fffaf9fc
05040607
fb020003
fe000000
0000fcfb
01040605
fa0603fd
fd00fbfc
06060202
fd00fa00
fd030100
0b00f8f2
06000208
fa030304
fefefdfe
00020203
00070205
ff030000
0403f8fe
05010502
fd010100
000000fe
0503fffe
fc00fb07
fc000000
ff03fbfe
03010103
03020203
fdfef901
0003fdff
0003fbfb
f8000000
fcff02fe
010300fa
04030204
fbfcfe00
f8fc0100
0000faf4
fb000000
feff07fd
000000fb
00060002
02ffff00
fe00fffd
00fffbfe
fa000000
040306fd
04040400
ff00fa00
fc010003
fd02fbfd
0007fffc
f7ff0000
02ff00fc
01030006
fffef900
fdfd0303
00fbf7fa
0100fafe
f5000000
0504fefa
01030206
06fffa00
fb000403
fefdfaf9
ff01f7fa
f7000000
0304fffb
00060505
00fdf6fa
00fe04fe
0601fcf7
0000fb01
ff000000
00ff01fc
05060202
00fff9fe
fefdfbf8
0202fef9
0000ffff
05000000
0202fafd
05070805
fe000001
fffbfdfb
fe05fbf9
0001faf6
0a020000
0403fc03
02030801
00000506
0101fafe
fafff7f6
0000fbfa
04000000
00f80002
04000000
00000403
fe00fd00
fd01fbf8
00fffdfd
02000000
fefffd00
fbfd00ff
04ff0000
f4ff020a
00faf9fa
000000fe
00000000
0301f3f4
fc03fe01
0400fbfd
03030a0b
fffcfafd
000000ff
00000000
01f8fafe
01040504
03090407
040d0f07
00000001
00000000
00000000
03000000
03020103
05060103
00070201
00000000
00000000
00000000
00000000
00000000
00000000
00000000
00000000
00000000
00000000
00000000
00000000
00000000
00000000
00000000
00000000
00000000
00000000
04000000
000a0401
020d0c00
00000001
00000000
00000000
fe000000
0d040806
fbfb070c
f8fff6ff
000007fb
00000202
00000000
04fdfd00
090502fb
00fffe04
fb020401
06fe0000
00000a08
00000000
fbfdfafa
030705ff
fc00fffa
000302ff
fdfb0006
00020e06
fc010000
fcf7f9f8
03020504
fcfbfefc
040403fd
05000009
fd000d06
fb010000
f8f8fdf9
fa020503
020000fd
04030104
04030503
fe04fef7
fd000000
000400fc
fbfd0206
0100fffd
fb00fd02
fdfdfef9
000101f3
fe000000
ff01fdf4
ff010906
fef6f7f9
f6f5f4fb
fdf8f9f3
fe030002
fbfa0000
0200fef5
0004100b
feeef1fc
fdfdf1f8
00fbfdf7
00020409
f2010000
060300ef
07040f10
00fcf803
fffffdfd
060002fd
ff06050a
f1ff0000
0905f6f3
0a050b09
01fcfe03
000100fe
05ff01fd
f7000107
f3ff0000
05faf3eb
0c0d0903
00020008
00fffeff
0406ff02
00ff0004
f7000000
04fff7f2
0a0c0608
ff03ff02
00fe0300
01090406
00fcfffb
fd000000
fefcfbfe
05080200
fe030102
01ff0500
00000004
00fa00ff
00fc0000
f4f8f6f3
0300fafa
00010106
ff01ff02
04fdfa01
fff70600
04fa0000
f1f9f8f9
0305fbfc
00010203
fcfefb02
0100fa02
fcff0103
04fe0000
f8ff0601
0002ffff
00080303
fef9fc00
00fffa00
0000ff02
fd000000
ffffff00
00010302
02080404
fefdfefd
ff00fcfb
0000fc02
fc000000
00fc02fe
00010303
03000202
fe00fe00
ff02fefe
00000502
00000000
01fe03ff
fcfc0500
fffd0101
fdfd00fe
fe030000
00fc0500
02000000
00fbfd04
000003ff
0002fa00
00fe0201
fef8fe00
00000102
03000000
fb000401
fe010101
03050201
ff020201
0000fdfe
00ff0100
ff000000
ff000307
00010600
01000404
fc00fb03
04feff01
00000000
02000000
0000fcfc
fe010aff
01000001
0a100a04
070a0605
00000001
00000000
02fdfd00
06050b0d
010b0b0a
fd040a00
00fffc00
00000000
00000000
00000000
01000000
07050002
02040004
00fdfc00
00000000
00000000
00000000
00000000
00000000
00000000
00000000
00000000
00000000
00000000
00000000
05040000
00000000
00000000
00000000
00000000
ff000000
fafdf8fc
02fc06fb
07070605
00000004
00000000
00000000
f8fafd06
f9ff03f9
04030500
03070805
fffd0505
00000402
00000000
fffefcff
fffa03fe
06020500
fd050400
07070701
00000603
02000000
fa060afc
01040201
02000200
ff010002
010300fe
00000805
fd000000
00010100
03fffe04
01010105
fd000000
00030201
00041206
fdff0000
02050000
03040300
04030107
ff01fe02
01030500
00ff0e07
fc010000
0005fffc
00040101
0406ff05
fafe0000
04fe0300
00fc080c
fe010000
0202020a
06050102
01040603
f90001fd
02fffeff
00000709
fd030000
03040406
05010604
00000202
fbf7fcfd
fbfefdfc
000000fc
00050000
03030202
fe0200ff
f9f8ffff
f9000300
fefcffff
0000f6ff
04000000
0003090b
00020703
fdf9fbff
0205fefe
00fcfd00
0000f4f6
02000000
02fe040c
fe0200fd
fdf8f5fb
fe0004fe
fefe0000
0000f8fc
02000000
0000010b
fa03ff01
fdf8fafe
fd0000fe
07030100
0000ff0a
00000000
ff01fd05
fe0501fe
fffc00fb
fd0401fc
020500ff
00f90209
00fe0000
fdfe0000
fc00fdfd
01fbfafe
000003fb
0303ff03
00fafb01
00fd0000
0001fefe
fe0000ff
0c00f5ff
fe000704
fd00f6ff
ff00f800
fe000000
020402ff
fe000000
0907f2f6
00000406
02000000
fcf5ff02
fb000000
01090101
00000302
1106fafd
05030406
01010303
fff9010b
fe000000
ff060000
feff0202
0c09fcfc
09080809
02000000
00000005
02ff0000
00020100
0001fe05
0701fe01
0008050a
fc000102
00fe0204
fefb0000
fefdfdfe
00fb0003
020300fe
04050704
fffe0206
00000302
00000000
fb00fbfc
fafefbfb
01020100
03fb0101
fcfc0001
00000001
01000000
00040301
f9fefc00
00fa0300
05020700
04040305
00000000
00000000
ff04fefe
fbf5fcfa
ff010201
05fffdfe
00050904
00000000
00000000
fdfe0000
fc000a01
0b0800fc
0c010306
0000030b
00000000
00000000
00000000
01060000
00010000
03080201
00000000
00000000
00000000
00000000
00000000
00000000
00000000
00000000
00000000
00000000
00000000
00000000
02000000
00000000
00000000
00000000
00000000
01000000
04020200
07040201
04040206
00010104
00000000
00000000
030601fd
05010207
07ff0301
06040203
06fffcfd
0000fdfe
00000000
03030600
0408040d
00020203
00fe0304
fdfbfb00
0001fcf8
fe000000
05fefd04
00fefefc
00ff0206
03fe0000
fffe0004
00020102
03ff0000
00fdf7ff
0300fcfc
01ff0000
00fe0000
02fbfa00
030002fd
fefd0000
fffdfa03
0300fcfd
02000101
fc00fb00
fffffe00
000300fc
01fc00fd
00000102
00fffffd
00000602
00000100
01000100
0003fefd
03fe0000
01010000
0102ff00
02010001
01fe0104
ff0202fe
fc01fdfc
04f90000
00fefdfe
0002fefd
00050000
02010100
06010300
ff00f8fd
01fffc00
ffff0202
ff0101fd
00060302
01fcfdfd
02000107
00070500
01000000
00000202
0200feff
fd050100
fffb02fd
00030401
fdfe0004
00000000
ff0000fa
00fc0100
ff050300
00fdfe04
02ff0303
0005f9ff
00000000
0000fdfc
00000001
01040200
fefeff04
fdff0000
000500fa
00000000
fe0000fc
00000002
ff060101
02010007
fcfbfb01
0000fefb
02020000
030202fd
03040100
fe020001
00010102
fffffdfc
00030600
02000000
0000fffe
fe01fe01
00000202
00000002
feff0001
fcfd0000
03000000
00ff00ff
fe0000fa
00010500
01010202
fdfcfdff
02ff0800
f6fd0000
000100fe
ff0102fd
040403fd
ff010103
070100fe
00000a00
fcff0000
01010000
0302ff00
0102ff00
01020103
0a010403
00000705
01000000
0503fffe
00000300
ff040402
03030201
05020106
00faff01
03000000
ff000203
00010200
fe010101
000301fe
00000404
00000001
06000000
fcfc00fe
fffd01ff
02000301
00070302
01060209
0000fe01
00000000
fcfefaff
010202ff
fffdfe01
0303ff05
fffe00fe
000000fe
00000000
0001fefc
fd000104
00050202
04030000
fcfcff03
000000fd
00000000
00010206
04020000
0100ffff
ff040700
00000301
00000000
00000000
01000000
00fe0001
02020000
0000fe00
000000ff
00000000
00000000
00000000
00000000
00000000
00000000
00000000
00000000
00000000
00000000
00000000
000000ff
00000000
00000000
00000000
00000000
01000000
04030602
05070100
00010304
00010201
00000000
00000000
050602fd
00fffe04
0800fffd
04060004
0602fefb
000000ff
00000000
00010700
0003fb09
00070300
fb000404
fffefdfa
000101fd
fe000000
03fe0104
00fc0001
01010209
ff000402
00fb0100
00030403
02000000
0300fb05
fdff0300
00fdff00
00fe00fd
fff9f8fc
03020502
04000000
0403fb04
00fe0100
00000301
f8fdfefb
f8fcf8fb
010600fc
00fd0000
06030206
05010003
feff03ff
fdfe00fc
fffffdff
0004fcfd
01ff0000
00010304
01ffff02
0001ff00
fdfe0000
ff0401fb
000201fd
ff030000
fffffbff
00fefbfe
000000fb
fffefafc
02000000
000000ff
02020000
fdfe0105
0100fe01
03050201
02fdfb01
0301fe00
000404ff
01010000
fffafffe
01fef9ff
060b05fc
03000001
00000200
00040403
01000000
fd00fefc
fffefc00
060a0501
01fd0008
00000108
00040305
01000000
0001fdfd
02fefdfc
02070503
02fd0009
00fe0202
000301fc
01000000
000100fb
01fd0001
010a0700
02000204
00000504
00040100
06000000
fe030101
03010200
ff0908fe
04060302
ff000302
00060904
04000000
010501ff
ff00fb01
feff03fb
0101fdff
fefe0300
f6020604
04000000
03020401
0000fb00
fffc0600
00010100
00fe0102
00020603
fbff0000
ff020304
000402fe
000000ff
00ff0603
040000fe
00000202
fdff0000
00030100
0100fffe
050000fd
fdfefeff
050001ff
00000304
00000000
0500fcff
00000300
00020001
03ff0300
03010001
00fdfe02
00000000
04fd0104
02020200
00fdfffd
fb000001
00fd0004
0000ff04
01000000
0000fe05
00fb0001
fdf9fffd
00fffc00
0002fc06
0000fe00
00000000
020600fc
fffefdff
fcf8fbfc
fbfb0200
fdf8f800
000000fe
00000000
040a0400
f903fd00
01000100
01020402
fcfbf9fd
000000ff
00000000
06fefffc
08040003
03080902
01050603
00000000
00000000
00000000
00000000
00010000
01010000
00010200
00000000
00000000
00000000
00000000
00000000
00000000
00000000
00000000
00000000
00000000
00000000
00000000
00000000
00000000
00000000
00000000
00000000
00000000
03ff0000
00000506
fd020602
0000fffe
00000000
ff000000
060302fb
09fe0108
05000405
00fc0305
01fefb00
000000fe
00000000
07010600
0706070b
fd050708
00f9fcff
02070a01
0000fff5
fe000000
03fc0001
ffff0305
00060106
03feff00
0d0e06fe
0000fa00
00000000
ff000702
f9f5feff
fafffe03
fc02fdf9
0501fefa
0000fa06
ff000000
02000406
fdfd0200
fbfb01fd
fe00feff
00f5f2fb
0000fd03
05010009
04010109
fb000602
fafc0100
f900fcfc
03faf900
00fd00fb
08000000
fefcfe00
00fc0301
fa010004
fdfcfb02
07020100
00f60704
fe040000
fefcf8fd
08040302
0000050a
fdfd0000
010101ff
00f3fd05
07fe0000
fbfdff02
09030602
00f8ff09
ff02fd01
fdff00fe
01fafa00
07fc0000
030000ff
0a060603
02fcf601
02fe0000
00030105
0501030e
0a000000
02040200
05050904
00fff6fd
06050101
08020001
00030a04
05000000
020505fd
ff030705
ff01fafa
07050301
09060000
00ff0102
03010100
070505f7
fa020206
0407fdf8
04fd0302
0b080201
00fe0001
07030000
0a040500
f8010607
0100f9ef
00fafc03
09020601
fef4ff08
02050000
09050502
fafdfd02
fffffff0
fcfdff00
0f0b0800
f9fdfb05
ff020000
000506fe
f4f6fcff
fbfc00fc
0300ff02
08080606
fbf9ff00
00000000
000701f9
f9f8fe00
000003ff
fd0200fb
00000002
00fbf705
f9ff0000
0202f9f6
ff010202
02080304
00040101
fdff0204
0000f5fe
02000000
f5f8f2f7
00fd0000
07040201
04030000
fd010300
000afcf7
02000000
fcfdfd00
01fa00fc
04ff0100
07070302
ff000401
0001f8f6
02000000
03030008
000204ff
000000fd
05060102
fef8f900
0000fdf5
00000000
01040905
0101f7fa
ff0200fa
ff03fefc
fafcfcf8
00000001
00000000
0403fc00
fc00f9fe
030002fd
01060402
030300fa
00000005
00000000
f900fdfe
fdfefcf9
00fdfdf9
01ffff05
ff02fff9
00000000
00000000
f9fe0000
f9f9fdfa
faf700ff
fbff03ff
00040503
00000000
00000000
00000000
00000000
00000000
00000000
00000000
00000000
00000000
00000000
00000000
00000000
00000000
00000000
00000000
00000000
00000000
fefefe00
fbfafeff
fd02fcf9
0000fefe
00000000
00000000
fbfc0001
ff040100
03070500
feff00ff
00000603
00000100
00000000
03f8fb00
00ff0000
020102ff
00040101
06060403
00000107
01000000
fffef9fd
04ff01fd
0003ff00
020100fe
fcfefe00
00ff0502
ff000000
020200fd
0101ff01
02010000
00000305
06040204
ff000004
fd000000
fe0001fd
00000205
03fdff02
03040101
0702fe01
ff030001
03010001
0006fdff
01000206
02020302
00010104
00020400
00010b03
04000000
0204fefb
00ff0404
01060600
00feff01
01ff0403
fd000908
00fe0000
03060200
02040301
02060302
01000003
06020004
ff000007
01ff0100
040600fe
01030101
fe000003
010003ff
000000ff
000c0104
03000000
04080406
0200fcfe
fffc0302
030300ff
04fd0001
fdfffb00
00000000
04020404
030200fd
02000405
02000000
000500fe
00fbfefc
fc000000
01040703
0403fe02
00010100
fc0000fe
000402fd
00fcfe03
fcff0000
03010402
01030201
00010004
fb01fffe
05030101
00fa0204
ffff0000
00010000
0000fe01
00ff0003
fe00fffe
0502fd01
00f9fdfd
feff0000
03000200
00000000
00000002
fffd0400
04020203
04fff901
fe000000
ff030200
03020200
0002fdff
01fefd02
00030304
fdfdf4fe
02000000
00010400
fc000004
00010003
0100ff02
fbfe0100
0000f9fc
fd000000
00000001
00000102
01010200
00fbffff
fefe0004
0000fcf7
fefd0000
0301fd00
01000304
05000200
fcfc00fd
0001fffd
000200fa
03ff0000
ff00fd00
03040303
01020103
00fcff00
0004fffd
000000fe
03000000
02fb0000
03020203
00000103
fe030502
0003fefb
00000101
00000000
000000fe
fe020202
ff040904
fb01fa01
0200fcfd
00000000
00000000
00fd01fd
0000fdfc
04fb0601
0600fe02
02010101
00000000
00000000
fd040804
01ff02ff
ff00ff07
fd0402fb
0000fffe
00000000
00000000
00000000
00ff0000
00000000
0000fd00
0000ff00
00000000
00000000
00000000
00000000
00000000
00000000
00000000
00000000
00000000
00000000
00000000
fdff00fe
00000000
00000000
00000000
00000000
00000000
04070803
0606ff06
fc060307
00000000
00000000
00000000
03020001
06020405
09000306
04050705
030b04f6
00000000
00000000
040503fc
02080503
00020206
fdffff00
0a0508fc
00000102
00000000
00060602
fd00feff
0204fe00
fffc0005
fc0404fd
00000500
00ff0000
fa01ff01
f9f8fdfa
0903faf7
fcf8fc03
fe03f9f9
00000b00
00000000
01fc01fe
fbfefafe
030600fb
f6f6fc00
f9fdfbf7
00090ff9
fdfd0000
010004f9
fafdfcf8
010102fa
fdfcfafe
01fefe01
00020ffd
fcff0000
00fe03f4
f9fd00fe
ff00fdf4
04fffb00
01040401
00010bfd
f7fc0000
fdfc00fc
f8feff07
fffefaf7
0203fbfe
02fe0301
0003f9ff
fffc0000
000204fe
fc00ff04
ff02fef9
0000f7fd
03ff00fb
00030000
06fc0000
050003fc
02030205
04050503
01ff0001
fe020303
fbfaff00
01000000
fe020300
020003ff
0403070b
fc01fd00
fdfe00ff
0000fcff
05000000
03040603
04030401
0606030a
fd000302
fffdfdfa
000601ff
09010000
0500fefd
01020609
02080300
fdfc0000
fbf8fbfd
000502f9
04010000
02fdfcfe
fafd0509
0200fbf7
fffcff00
fcfd01fc
000e06ff
fc020000
0005fe00
fa000408
060200fb
01030003
ff030607
f80002fe
fcfe00ff
03050703
fbfe0006
01020a01
04030303
01020000
09050808
fffe0000
fd040308
f9fcfffc
060005f8
00010806
05080401
00050806
fe000000
fcfe03ff
faf8fcf9
080202fe
03030306
02060806
00000000
faff0000
05000000
fdf901fd
030503fe
04050400
07070905
000105fb
00000000
0101fafd
00060001
fdff0300
0a0200fb
01fe0604
0000fe00
01000000
00fcfd00
fdfe0104
fbfbfbfe
fffefcfe
01000204
000000fe
00000000
03030100
fcff0004
fe03f8fb
0100fafc
f7fa0100
00010204
00000000
f9f9fd00
fcfe00fb
04f7f0f3
fafdf9f7
0801fffc
00010005
00000000
f9fdfe00
f6f5fd00
fdfafbf8
fc00fafb
00fef6f5
00000000
00000000
00000000
fcfc0000
fff90000
fbf9ff00
0000ffff
00000000
00000000
00000000
00000000
00000000
00000000
00000000
00000000
00000000
00000000
00000000
00000000
00000000
00000000
00000000
00000000
00000000
ff000000
fef9fafe
fdf8f6f8
000000ff
00000000
00000000
00000000
fcfc02fc
000002ff
000800fa
0001fff8
00000000
00000000
06070000
03fdfef7
ff020404
040200fb
0000fb03
00000000
fe000000
01fdf5fe
0c0401fe
05060507
f8030002
fd0002f9
00040300
f6000000
00fcf4f6
04040404
0a0c0c06
f700fb05
0100f0ef
000002fa
f9010000
0000fffe
07050008
01040809
fdf8f700
f8fdf8fb
0000fdf8
fbfe0000
0404fcff
0b03040e
fbfcfc01
000200fa
f9fe0502
000004fb
f8020000
070707fd
02010206
fcf6f5fb
030906fe
fc000502
00000802
fb010000
060505fa
fd000305
0002f9f4
000f0a05
fe0503fd
fefd00fe
fafc0000
060804f7
fe02ff03
05020801
fe080c07
fcfc00ff
00fefbfb
04000000
fe01fefd
030000ff
fb000601
04fe02fe
fdf6f7fd
0000fcf9
03ff0000
fdfd0100
fe0302fd
fcfdfdfd
04f9fcfd
02fffeff
00000000
fefe0000
fdfafb04
fa00fdf7
fdfbfef8
ff00fcff
fc0300fd
0000fdfe
fffe0000
fbff0507
f9fb00f8
fefefcfa
fffe00fc
00fd03fc
00fffcfd
fc000000
fdff0409
f4f7f8fd
f800f800
fffdfdfc
04020204
0000fbfc
01000000
00050203
fafcfafb
faf8fffe
fafefdfd
01fcfe00
00fb04ff
fa000000
030300fa
05fdfbfc
f9fa0008
fbff00fe
01faf8fb
0000fafd
f8000000
01fffbfb
