00000337
0000006d
000002f7
000002e1
000000f2
000000e6
00000236
0000017a
00000293
0000006e
000000df
000002bd
000002de
ffffffba
00000160
00000038
0000001c
000000ec
fffffe70
0000012f
00000023
00000234
ffffffec
000002ac
ffffffb0
ffffffd6
000000e6
00000331
00000494
00000085
ffffff31
00000023
fffffe50
0000026b
ffffff60
0000002e
0000028c
fffffca9
ffffff30
fffffd10
ffffff88
fffffd35
000001b6
000000d0
ffffffac
fffffe59
fffffe02
000002cb
00000011
00000000
ffffff7a
0000012f
000000d0
000000bd
0000024f
00000429
000000a5
fffffeff
00000199
0000009b
000002ab
ffffff72
00000061
00000157
fffffdb6
fffffedc
fffffe59
fffffd41
ffffff0e
fffffccc
00000289
00000207
000001b5
ffffff43
00000244
0000008c
00000196
00000391
0000005d
000000ba
000000e8
fffffde8
00000375
000001d0
ffffff71
0000030d
0000026c
fffffe51
fffffef4
fffffe3a
0000011d
fffffeed
000001be
0000013a
fffffecd
fffffdf4
000000d5
0000014d
000000fe
0000021c
ffffff7d
00000114
0000001d
0000035b
ffffffa3
000002fb
00000554
fffffeac
ffffff7e
000001e9
fffffe0e
fffffeca
ffffff46
00000092
ffffffe7
00000234
00000374
000002a6
ffffffaf
000001ed
ffffff5c
fffffdbc
00000075
ffffff6d
fffffeb8
0000012b
fffffee7
0000035b
ffffffe2
fffffffc
00000006
fffffff3
0000000f
fffffff5
ffffffe2
00000009
00000009
fffffff2
00000000
00000000
00000000
00000000
00000000
00000000
00000000
00000000
00000000
00000000
00000000
00000000
00000000
00000000
00000000
00000000
00000000
00000000
00000000
00000000
00000000
00000000
00000000
00000000
00000000
00000000
00000000
00000000
00000000
00000000
00000000
00000000
00000000
00000000
00000000
00000000
00000000
00000000
00000000
00000000
00000000
00000000
00000000
00000000
00000000
00000000
00000000
00000000
00000000
00000000
00000000
00000000
00000000
00000000
00000000
00000000
00000000
00000000
00000000
00000000
00000000
00000000
00000000
00000000
00000000
00000000
00000000
00000000
00000000
00000000
00000000
00000000
00000000
00000000
00000000
00000000
00000000
00000000
00000000
00000000
00000000
00000000
00000000
00000000
00000000
00000000
00000000
00000000
00000000
00000000
00000000
00000000
00000000
00000000
00000000
00000000
00000000
00000000
00000000
00000000
00000000
00000000
00000000
00000000
00000000
00000000
00000000
00000000
00000000
00000000
00000000
00000000
00000000
00000000
00000000
00000000
00000000
00000000
